[PAD] 1
[unused1] 1
[unused2] 1
[unused3] 1
[unused4] 1
[unused5] 1
[unused6] 1
[unused7] 1
[unused8] 1
[unused9] 1
[unused10] 1
[unused11] 1
[unused12] 1
[unused13] 1
[unused14] 1
[unused15] 1
[unused16] 1
[unused17] 1
[unused18] 1
[unused19] 1
[unused20] 1
[unused21] 1
[unused22] 1
[unused23] 1
[unused24] 1
[unused25] 1
[unused26] 1
[unused27] 1
[unused28] 1
[unused29] 1
[unused30] 1
[unused31] 1
[unused32] 1
[unused33] 1
[unused34] 1
[unused35] 1
[unused36] 1
[unused37] 1
[unused38] 1
[unused39] 1
[unused40] 1
[unused41] 1
[unused42] 1
[unused43] 1
[unused44] 1
[unused45] 1
[unused46] 1
[unused47] 1
[unused48] 1
[unused49] 1
[unused50] 1
[unused51] 1
[unused52] 1
[unused53] 1
[unused54] 1
[unused55] 1
[unused56] 1
[unused57] 1
[unused58] 1
[unused59] 1
[unused60] 1
[unused61] 1
[unused62] 1
[unused63] 1
[unused64] 1
[unused65] 1
[unused66] 1
[unused67] 1
[unused68] 1
[unused69] 1
[unused70] 1
[unused71] 1
[unused72] 1
[unused73] 1
[unused74] 1
[unused75] 1
[unused76] 1
[unused77] 1
[unused78] 1
[unused79] 1
[unused80] 1
[unused81] 1
[unused82] 1
[unused83] 1
[unused84] 1
[unused85] 1
[unused86] 1
[unused87] 1
[unused88] 1
[unused89] 1
[unused90] 1
[unused91] 1
[unused92] 1
[unused93] 1
[unused94] 1
[unused95] 1
[unused96] 1
[unused97] 1
[unused98] 1
[unused99] 1
[UNK] 1
[CLS] 1
[SEP] 1
[MASK] 1
<S> 1
<T> 1
! 1
" 1
# 1
$ 1
% 1
& 1
' 1
( 1
) 1
* 1
+ 1
, 1
- 1
. 1
/ 1
0 1
1 1
2 1
3 1
4 1
5 1
6 1
7 1
8 1
9 1
: 1
; 1
< 1
= 1
> 1
? 1
@ 1
A 1
B 1
C 1
D 1
E 1
F 1
G 1
H 1
I 1
J 1
K 1
L 1
M 1
N 1
O 1
P 1
Q 1
R 1
S 1
T 1
U 1
V 1
W 1
X 1
Y 1
Z 1
[ 1
\ 1
] 1
^ 1
_ 1
a 1
b 1
c 1
d 1
e 1
f 1
g 1
h 1
i 1
j 1
k 1
l 1
m 1
n 1
o 1
p 1
q 1
r 1
s 1
t 1
u 1
v 1
w 1
x 1
y 1
z 1
{ 1
| 1
} 1
~ 1
¡ 1
¢ 1
£ 1
¥ 1
¦ 1
§ 1
¨ 1
© 1
ª 1
« 1
¬ 1
® 1
° 1
± 1
² 1
³ 1
µ 1
¶ 1
· 1
¹ 1
º 1
» 1
¼ 1
½ 1
¾ 1
¿ 1
À 1
Á 1
Â 1
Ã 1
Ä 1
Å 1
Æ 1
Ç 1
È 1
É 1
Ê 1
Ë 1
Ì 1
Í 1
Î 1
Ð 1
Ñ 1
Ò 1
Ó 1
Ô 1
Õ 1
Ö 1
× 1
Ø 1
Ú 1
Ü 1
Ý 1
Þ 1
ß 1
à 1
á 1
â 1
ã 1
ä 1
å 1
æ 1
ç 1
è 1
é 1
ê 1
ë 1
ì 1
í 1
î 1
ï 1
ð 1
ñ 1
ò 1
ó 1
ô 1
õ 1
ö 1
÷ 1
ø 1
ù 1
ú 1
û 1
ü 1
ý 1
þ 1
ÿ 1
Ā 1
ā 1
Ă 1
ă 1
Ą 1
ą 1
Ć 1
ć 1
Č 1
č 1
Ď 1
ď 1
Đ 1
đ 1
Ē 1
ē 1
Ĕ 1
ĕ 1
Ė 1
ė 1
ę 1
ě 1
Ğ 1
ğ 1
ġ 1
Ģ 1
ģ 1
Ħ 1
ħ 1
ĩ 1
Ī 1
ī 1
Į 1
į 1
İ 1
ı 1
Ķ 1
ķ 1
ĺ 1
Ļ 1
ļ 1
Ľ 1
ľ 1
Ł 1
ł 1
ń 1
Ņ 1
ņ 1
ň 1
ŉ 1
ŋ 1
Ō 1
ō 1
ŏ 1
Ő 1
ő 1
Œ 1
œ 1
ŕ 1
Ř 1
ř 1
Ś 1
ś 1
Ş 1
ş 1
Š 1
š 1
Ţ 1
ţ 1
Ť 1
ť 1
ũ 1
Ū 1
ū 1
ŭ 1
ů 1
Ű 1
ű 1
ų 1
ŵ 1
ŷ 1
Ź 1
ź 1
Ż 1
ż 1
Ž 1
ž 1
Ə 1
ƒ 1
ơ 1
Ư 1
ư 1
ǎ 1
ǐ 1
ǔ 1
ǫ 1
ǹ 1
Ș 1
ș 1
Ț 1
ț 1
ɐ 1
ɑ 1
ɔ 1
ɕ 1
ə 1
ɛ 1
ɡ 1
ɣ 1
ɨ 1
ɪ 1
ɲ 1
ɾ 1
ʁ 1
ʃ 1
ʊ 1
ʎ 1
ʒ 1
ʔ 1
ʙ 1
ʰ 1
ʲ 1
ʳ 1
ʷ 1
ʸ 1
ʻ 1
ʼ 1
ʾ 1
ʿ 1
ˈ 1
ː 1
ˡ 1
ˢ 1
̀ 1
́ 1
̃ 1
̄ 1
̍ 1
̥ 1
̧ 1
̲ 1
͡ 1
΄ 1
Ά 1
Έ 1
Ή 1
Ί 1
Ό 1
Ύ 1
Ώ 1
ΐ 1
Α 1
Β 1
Γ 1
Δ 1
Ε 1
Ζ 1
Η 1
Θ 1
Ι 1
Κ 1
Λ 1
Μ 1
Ν 1
Ξ 1
Ο 1
Π 1
Ρ 1
Σ 1
Τ 1
Υ 1
Φ 1
Χ 1
Ψ 1
Ω 1
ά 1
έ 1
ή 1
ί 1
α 1
β 1
γ 1
δ 1
ε 1
ζ 1
η 1
θ 1
ι 1
κ 1
λ 1
μ 1
ν 1
ξ 1
ο 1
π 1
ρ 1
ς 1
σ 1
τ 1
υ 1
φ 1
χ 1
ψ 1
ω 1
ϊ 1
ϋ 1
ό 1
ύ 1
ώ 1
Ё 1
Ђ 1
Ѓ 1
Є 1
Ѕ 1
І 1
Ї 1
Ј 1
Љ 1
Њ 1
Ћ 1
Ќ 1
Ў 1
Џ 1
А 1
Б 1
В 1
Г 1
Д 1
Е 1
Ж 1
З 1
И 1
Й 1
К 1
Л 1
М 1
Н 1
О 1
П 1
Р 1
С 1
Т 1
У 1
Ф 1
Х 1
Ц 1
Ч 1
Ш 1
Щ 1
Ъ 1
Ы 1
Ь 1
Э 1
Ю 1
Я 1
а 1
б 1
в 1
г 1
д 1
е 1
ж 1
з 1
и 1
й 1
к 1
л 1
м 1
н 1
о 1
п 1
р 1
с 1
т 1
у 1
ф 1
х 1
ц 1
ч 1
ш 1
щ 1
ъ 1
ы 1
ь 1
э 1
ю 1
я 1
ѐ 1
ё 1
ђ 1
ѓ 1
є 1
ѕ 1
і 1
ї 1
ј 1
љ 1
њ 1
ћ 1
ќ 1
ѝ 1
ў 1
џ 1
ѣ 1
Ґ 1
ґ 1
Ғ 1
ғ 1
Җ 1
җ 1
Ҙ 1
ҙ 1
Қ 1
қ 1
Ҡ 1
ҡ 1
ң 1
ҫ 1
Ү 1
ү 1
Ұ 1
ұ 1
Ҳ 1
ҳ 1
Ҷ 1
ҷ 1
Һ 1
һ 1
Ӏ 1
ӑ 1
ӗ 1
Ә 1
ә 1
ӣ 1
Ө 1
ө 1
Ӯ 1
ӯ 1
ӳ 1
Ա 1
Բ 1
Գ 1
Դ 1
Ե 1
Զ 1
Է 1
Ը 1
Թ 1
Ժ 1
Ի 1
Լ 1
Խ 1
Ծ 1
Կ 1
Հ 1
Ձ 1
Ղ 1
Ճ 1
Մ 1
Յ 1
Ն 1
Շ 1
Ո 1
Չ 1
Պ 1
Ջ 1
Ռ 1
Ս 1
Վ 1
Տ 1
Ր 1
Ց 1
Ւ 1
Փ 1
Ք 1
Օ 1
Ֆ 1
՚ 1
՛ 1
՜ 1
՝ 1
՞ 1
ա 1
բ 1
գ 1
դ 1
ե 1
զ 1
է 1
ը 1
թ 1
ժ 1
ի 1
լ 1
խ 1
ծ 1
կ 1
հ 1
ձ 1
ղ 1
ճ 1
մ 1
յ 1
ն 1
շ 1
ո 1
չ 1
պ 1
ջ 1
ռ 1
ս 1
վ 1
տ 1
ր 1
ց 1
ւ 1
փ 1
ք 1
օ 1
ֆ 1
և 1
։ 1
֊ 1
ְ 1
ֱ 1
ֲ 1
ִ 1
ֵ 1
ֶ 1
ַ 1
ָ 1
ֹ 1
ּ 1
־ 1
ׁ 1
ׂ 1
׃ 1
א 1
ב 1
ג 1
ד 1
ה 1
ו 1
ז 1
ח 1
ט 1
י 1
ך 1
כ 1
ל 1
ם 1
מ 1
ן 1
נ 1
ס 1
ע 1
ף 1
פ 1
ץ 1
צ 1
ק 1
ר 1
ש 1
ת 1
׳ 1
״ 1
، 1
؍ 1
ؒ 1
؛ 1
؟ 1
ء 1
آ 1
أ 1
ؤ 1
إ 1
ئ 1
ا 1
ب 1
ة 1
ت 1
ث 1
ج 1
ح 1
خ 1
د 1
ذ 1
ر 1
ز 1
س 1
ش 1
ص 1
ض 1
ط 1
ظ 1
ع 1
غ 1
ـ 1
ف 1
ق 1
ك 1
ل 1
م 1
ن 1
ه 1
و 1
ى 1
ي 1
ً 1
ٌ 1
ٍ 1
َ 1
ُ 1
ِ 1
ّ 1
ْ 1
ٔ 1
ٛ 1
٠ 1
١ 1
٢ 1
٣ 1
٤ 1
٥ 1
٩ 1
٪ 1
٫ 1
٬ 1
٭ 1
ٰ 1
ٹ 1
پ 1
چ 1
ڈ 1
ڑ 1
ژ 1
ڤ 1
ک 1
ڭ 1
گ 1
ں 1
ھ 1
ۀ 1
ہ 1
ۂ 1
ۃ 1
ۆ 1
ۇ 1
ی 1
ے 1
ۓ 1
۔ 1
۰ 1
۱ 1
۲ 1
۳ 1
۴ 1
۵ 1
۶ 1
۷ 1
۸ 1
۹ 1
ँ 1
ं 1
ः 1
अ 1
आ 1
इ 1
ई 1
उ 1
ऊ 1
ऋ 1
ऍ 1
ऎ 1
ए 1
ऐ 1
ऑ 1
ओ 1
औ 1
क 1
ख 1
ग 1
घ 1
ङ 1
च 1
छ 1
ज 1
झ 1
ञ 1
ट 1
ठ 1
ड 1
ढ 1
ण 1
त 1
थ 1
द 1
ध 1
न 1
प 1
फ 1
ब 1
भ 1
म 1
य 1
र 1
ऱ 1
ल 1
ळ 1
व 1
श 1
ष 1
स 1
ह 1
़ 1
ऽ 1
ा 1
ि 1
ी 1
ु 1
ू 1
ृ 1
ॄ 1
ॅ 1
ॆ 1
े 1
ै 1
ॉ 1
ो 1
ौ 1
् 1
ॐ 1
॓ 1
ॠ 1
। 1
॥ 1
० 1
१ 1
२ 1
३ 1
४ 1
५ 1
६ 1
७ 1
८ 1
९ 1
॰ 1
ॲ 1
ঁ 1
ং 1
ঃ 1
অ 1
আ 1
ই 1
ঈ 1
উ 1
ঊ 1
ঋ 1
এ 1
ঐ 1
ও 1
ঔ 1
ক 1
খ 1
গ 1
ঘ 1
ঙ 1
চ 1
ছ 1
জ 1
ঝ 1
ঞ 1
ট 1
ঠ 1
ড 1
ঢ 1
ণ 1
ত 1
থ 1
দ 1
ধ 1
ন 1
প 1
ফ 1
ব 1
ভ 1
ম 1
য 1
র 1
ল 1
শ 1
ষ 1
স 1
হ 1
় 1
া 1
ি 1
ী 1
ু 1
ূ 1
ৃ 1
ে 1
ৈ 1
ো 1
ৌ 1
্ 1
ৎ 1
০ 1
১ 1
২ 1
৩ 1
৪ 1
৫ 1
৬ 1
৭ 1
৮ 1
৯ 1
ৰ 1
ৱ 1
৷ 1
ਂ 1
ਅ 1
ਆ 1
ਇ 1
ਈ 1
ਉ 1
ਊ 1
ਏ 1
ਐ 1
ਓ 1
ਔ 1
ਕ 1
ਖ 1
ਗ 1
ਘ 1
ਚ 1
ਛ 1
ਜ 1
ਝ 1
ਟ 1
ਠ 1
ਡ 1
ਢ 1
ਣ 1
ਤ 1
ਥ 1
ਦ 1
ਧ 1
ਨ 1
ਪ 1
ਫ 1
ਬ 1
ਭ 1
ਮ 1
ਯ 1
ਰ 1
ਲ 1
ਵ 1
ਸ 1
ਹ 1
਼ 1
ਾ 1
ਿ 1
ੀ 1
ੁ 1
ੂ 1
ੇ 1
ੈ 1
ੋ 1
ੌ 1
੍ 1
ੜ 1
੦ 1
੧ 1
੨ 1
੩ 1
੪ 1
੫ 1
ੰ 1
ੱ 1
ੲ 1
ੳ 1
ં 1
ઃ 1
અ 1
આ 1
ઇ 1
ઈ 1
ઉ 1
ઊ 1
ઋ 1
ઍ 1
એ 1
ઐ 1
ઑ 1
ઓ 1
ઔ 1
ક 1
ખ 1
ગ 1
ઘ 1
ચ 1
છ 1
જ 1
ઝ 1
ઞ 1
ટ 1
ઠ 1
ડ 1
ઢ 1
ણ 1
ત 1
થ 1
દ 1
ધ 1
ન 1
પ 1
ફ 1
બ 1
ભ 1
મ 1
ય 1
ર 1
લ 1
ળ 1
વ 1
શ 1
ષ 1
સ 1
હ 1
ા 1
િ 1
ી 1
ુ 1
ૂ 1
ૃ 1
ૅ 1
ે 1
ૈ 1
ૉ 1
ો 1
ૌ 1
્ 1
૦ 1
૧ 1
૨ 1
૩ 1
૪ 1
૫ 1
૬ 1
૭ 1
૮ 1
૯ 1
ஃ 1
அ 1
ஆ 1
இ 1
ஈ 1
உ 1
ஊ 1
எ 1
ஏ 1
ஐ 1
ஒ 1
ஓ 1
ஔ 1
க 1
ங 1
ச 1
ஜ 1
ஞ 1
ட 1
ண 1
த 1
ந 1
ன 1
ப 1
ம 1
ய 1
ர 1
ற 1
ல 1
ள 1
ழ 1
வ 1
ஷ 1
ஸ 1
ஹ 1
ா 1
ி 1
ீ 1
ு 1
ூ 1
ெ 1
ே 1
ை 1
ொ 1
ோ 1
ௌ 1
் 1
ం 1
ః 1
అ 1
ఆ 1
ఇ 1
ఈ 1
ఉ 1
ఊ 1
ఋ 1
ఎ 1
ఏ 1
ఐ 1
ఒ 1
ఓ 1
ఔ 1
క 1
ఖ 1
గ 1
ఘ 1
చ 1
ఛ 1
జ 1
ఝ 1
ఞ 1
ట 1
ఠ 1
డ 1
ఢ 1
ణ 1
త 1
థ 1
ద 1
ధ 1
న 1
ప 1
ఫ 1
బ 1
భ 1
మ 1
య 1
ర 1
ఱ 1
ల 1
ళ 1
వ 1
శ 1
ష 1
స 1
హ 1
ా 1
ి 1
ీ 1
ు 1
ూ 1
ృ 1
ె 1
ే 1
ై 1
ొ 1
ో 1
ౌ 1
్ 1
ಂ 1
ಃ 1
ಅ 1
ಆ 1
ಇ 1
ಈ 1
ಉ 1
ಊ 1
ಋ 1
ಎ 1
ಏ 1
ಐ 1
ಒ 1
ಓ 1
ಔ 1
ಕ 1
ಖ 1
ಗ 1
ಘ 1
ಚ 1
ಛ 1
ಜ 1
ಝ 1
ಞ 1
ಟ 1
ಠ 1
ಡ 1
ಢ 1
ಣ 1
ತ 1
ಥ 1
ದ 1
ಧ 1
ನ 1
ಪ 1
ಫ 1
ಬ 1
ಭ 1
ಮ 1
ಯ 1
ರ 1
ಲ 1
ಳ 1
ವ 1
ಶ 1
ಷ 1
ಸ 1
ಹ 1
ಾ 1
ಿ 1
ೀ 1
ು 1
ೂ 1
ೃ 1
ೆ 1
ೇ 1
ೈ 1
ೊ 1
ೋ 1
ೌ 1
್ 1
೦ 1
೧ 1
೨ 1
೩ 1
೪ 1
೫ 1
೬ 1
೭ 1
೮ 1
೯ 1
ം 1
ഃ 1
അ 1
ആ 1
ഇ 1
ഈ 1
ഉ 1
ഊ 1
ഋ 1
എ 1
ഏ 1
ഐ 1
ഒ 1
ഓ 1
ഔ 1
ക 1
ഖ 1
ഗ 1
ഘ 1
ങ 1
ച 1
ഛ 1
ജ 1
ഞ 1
ട 1
ഠ 1
ഡ 1
ഢ 1
ണ 1
ത 1
ഥ 1
ദ 1
ധ 1
ന 1
പ 1
ഫ 1
ബ 1
ഭ 1
മ 1
യ 1
ര 1
റ 1
ല 1
ള 1
ഴ 1
വ 1
ശ 1
ഷ 1
സ 1
ഹ 1
ാ 1
ി 1
ീ 1
ു 1
ൂ 1
ൃ 1
െ 1
േ 1
ൈ 1
ൊ 1
ോ 1
ൌ 1
് 1
ൗ 1
൧ 1
ൺ 1
ൻ 1
ർ 1
ൽ 1
ൾ 1
ක 1
ය 1
ර 1
ල 1
් 1
ා 1
ก 1
ข 1
ค 1
ฆ 1
ง 1
จ 1
ฉ 1
ช 1
ซ 1
ฌ 1
ญ 1
ฎ 1
ฏ 1
ฐ 1
ฑ 1
ฒ 1
ณ 1
ด 1
ต 1
ถ 1
ท 1
ธ 1
น 1
บ 1
ป 1
ผ 1
ฝ 1
พ 1
ฟ 1
ภ 1
ม 1
ย 1
ร 1
ฤ 1
ล 1
ว 1
ศ 1
ษ 1
ส 1
ห 1
ฬ 1
อ 1
ฮ 1
ฯ 1
ะ 1
ั 1
า 1
ำ 1
ิ 1
ี 1
ึ 1
ื 1
ุ 1
ู 1
ฺ 1
เ 1
แ 1
โ 1
ใ 1
ไ 1
ๆ 1
็ 1
่ 1
้ 1
๊ 1
๋ 1
์ 1
๐ 1
๑ 1
๒ 1
๓ 1
๔ 1
๕ 1
๖ 1
๗ 1
๘ 1
๙ 1
་ 1
། 1
ག 1
ང 1
ཆ 1
ད 1
ན 1
པ 1
བ 1
མ 1
ཚ 1
ར 1
ལ 1
ས 1
ི 1
ེ 1
ོ 1
ྒ 1
ྫ 1
ྱ 1
က 1
ခ 1
ဂ 1
ဃ 1
င 1
စ 1
ဆ 1
ဇ 1
ဈ 1
ဉ 1
ည 1
ဋ 1
ဌ 1
ဍ 1
ဏ 1
တ 1
ထ 1
ဒ 1
ဓ 1
န 1
ပ 1
ဖ 1
ဗ 1
ဘ 1
မ 1
ယ 1
ရ 1
လ 1
ဝ 1
သ 1
ဟ 1
ဠ 1
အ 1
ဤ 1
ဥ 1
ဦ 1
ဧ 1
ဩ 1
ါ 1
ာ 1
ိ 1
ီ 1
ု 1
ူ 1
ေ 1
ဲ 1
ံ 1
့ 1
း 1
္ 1
် 1
ျ 1
ြ 1
ွ 1
ှ 1
ဿ 1
၀ 1
၁ 1
၂ 1
၃ 1
၄ 1
၅ 1
၆ 1
၇ 1
၈ 1
၉ 1
၊ 1
။ 1
၌ 1
၍ 1
၎ 1
၏ 1
ა 1
ბ 1
გ 1
დ 1
ე 1
ვ 1
ზ 1
თ 1
ი 1
კ 1
ლ 1
მ 1
ნ 1
ო 1
პ 1
ჟ 1
რ 1
ს 1
ტ 1
უ 1
ფ 1
ქ 1
ღ 1
ყ 1
შ 1
ჩ 1
ც 1
ძ 1
წ 1
ჭ 1
ხ 1
ჯ 1
ჰ 1
ჲ 1
ᠢ 1
ᠨ 1
ᴬ 1
ᴮ 1
ᴰ 1
ᴵ 1
ᴾ 1
ᵀ 1
ᵃ 1
ᵇ 1
ᵈ 1
ᵉ 1
ᵍ 1
ᵏ 1
ᵐ 1
ᵒ 1
ᵖ 1
ᵗ 1
ᵘ 1
ᵛ 1
ᵢ 1
ᵣ 1
ᵤ 1
ᶜ 1
ᶠ 1
ḍ 1
ḏ 1
Ḑ 1
ḑ 1
Ḥ 1
ḥ 1
Ḩ 1
ḩ 1
Ḫ 1
ḫ 1
ḷ 1
ṃ 1
ṇ 1
ṛ 1
ṟ 1
Ṣ 1
ṣ 1
Ṭ 1
ṭ 1
ṯ 1
ẕ 1
ạ 1
Ả 1
ả 1
Ấ 1
ấ 1
ầ 1
Ẩ 1
ẩ 1
ẫ 1
ậ 1
ắ 1
ằ 1
ẳ 1
ẵ 1
ặ 1
Ẹ 1
ẹ 1
ẻ 1
ẽ 1
ế 1
ề 1
ể 1
ễ 1
ệ 1
ỉ 1
ị 1
Ọ 1
ọ 1
ỏ 1
Ố 1
ố 1
ồ 1
ổ 1
ỗ 1
ộ 1
ớ 1
ờ 1
Ở 1
ở 1
ỡ 1
ợ 1
ụ 1
Ủ 1
ủ 1
Ứ 1
ứ 1
ừ 1
ử 1
ữ 1
ự 1
ỳ 1
ỵ 1
ỷ 1
ỹ 1
ἀ 1
ἄ 1
Ἀ 1
ἐ 1
ἡ 1
ἢ 1
ἰ 1
ἱ 1
ἶ 1
ὁ 1
ὅ 1
ὐ 1
ὡ 1
ὰ 1
ὲ 1
ὴ 1
ὶ 1
ὸ 1
ὺ 1
ῆ 1
ῇ 1
ῖ 1
ῦ 1
ῶ 1
ῷ 1
‖ 1
‚ 1
„ 1
‟ 1
† 1
‡ 1
• 1
․ 1
‥ 1
‧ 1
‰ 1
′ 1
″ 1
‹ 1
› 1
※ 1
‿ 1
⁄ 1
⁰ 1
ⁱ 1
⁴ 1
⁵ 1
⁶ 1
⁷ 1
⁸ 1
⁹ 1
⁺ 1
⁻ 1
⁾ 1
ⁿ 1
₀ 1
₁ 1
₂ 1
₃ 1
₄ 1
₅ 1
₆ 1
₇ 1
₈ 1
₍ 1
₎ 1
ₐ 1
ₑ 1
ₒ 1
ₓ 1
ₖ 1
ₘ 1
ₙ 1
ₚ 1
ₛ 1
ₜ 1
₤ 1
€ 1
₹ 1
℃ 1
ℓ 1
№ 1
ℝ 1
™ 1
ℤ 1
⅓ 1
⅔ 1
Ⅰ 1
Ⅱ 1
Ⅲ 1
Ⅳ 1
← 1
↑ 1
→ 1
↓ 1
↔ 1
↺ 1
⇄ 1
⇌ 1
⇒ 1
⇔ 1
∀ 1
∅ 1
∇ 1
∈ 1
− 1
∗ 1
∘ 1
∙ 1
√ 1
∞ 1
∧ 1
∨ 1
∩ 1
∪ 1
∫ 1
∼ 1
≈ 1
≠ 1
≡ 1
≤ 1
≥ 1
≪ 1
≫ 1
⊂ 1
⊆ 1
⊕ 1
⊗ 1
⊙ 1
⋅ 1
⋯ 1
〈 1
〉 1
① 1
② 1
③ 1
④ 1
⑤ 1
─ 1
━ 1
│ 1
┃ 1
┓ 1
└ 1
├ 1
┣ 1
┫ 1
║ 1
█ 1
■ 1
□ 1
▪ 1
▭ 1
▲ 1
△ 1
► 1
▼ 1
◆ 1
◇ 1
○ 1
◎ 1
● 1
◡ 1
★ 1
☆ 1
☉ 1
♀ 1
♂ 1
♕ 1
♙ 1
♠ 1
♡ 1
♣ 1
♥ 1
♦ 1
♪ 1
♭ 1
♯ 1
⚭ 1
✝ 1
⟨ 1
⟩ 1
ⱼ 1
、 1
。 1
〃 1
々 1
〇 1
〈 1
〉 1
《 1
》 1
「 1
」 1
『 1
』 1
【 1
】 1
〒 1
〔 1
〕 1
〖 1
〗 1
〜 1
〝 1
ぁ 1
あ 1
ぃ 1
い 1
う 1
ぇ 1
え 1
お 1
か 1
が 1
き 1
ぎ 1
く 1
ぐ 1
け 1
げ 1
こ 1
ご 1
さ 1
ざ 1
し 1
じ 1
す 1
ず 1
せ 1
ぜ 1
そ 1
ぞ 1
た 1
だ 1
ち 1
ぢ 1
っ 1
つ 1
づ 1
て 1
で 1
と 1
ど 1
な 1
に 1
ぬ 1
ね 1
の 1
は 1
ば 1
ぱ 1
ひ 1
び 1
ぴ 1
ふ 1
ぶ 1
ぷ 1
へ 1
べ 1
ぺ 1
ほ 1
ぼ 1
ぽ 1
ま 1
み 1
む 1
め 1
も 1
ゃ 1
や 1
ゅ 1
ゆ 1
ょ 1
よ 1
ら 1
り 1
る 1
れ 1
ろ 1
わ 1
ゐ 1
を 1
ん 1
ゝ 1
ゞ 1
ァ 1
ア 1
ィ 1
イ 1
ゥ 1
ウ 1
ェ 1
エ 1
ォ 1
オ 1
カ 1
ガ 1
キ 1
ギ 1
ク 1
グ 1
ケ 1
ゲ 1
コ 1
ゴ 1
サ 1
ザ 1
シ 1
ジ 1
ス 1
ズ 1
セ 1
ゼ 1
ソ 1
ゾ 1
タ 1
ダ 1
チ 1
ヂ 1
ッ 1
ツ 1
ヅ 1
テ 1
デ 1
ト 1
ド 1
ナ 1
ニ 1
ヌ 1
ネ 1
ノ 1
ハ 1
バ 1
パ 1
ヒ 1
ビ 1
ピ 1
フ 1
ブ 1
プ 1
ヘ 1
ベ 1
ペ 1
ホ 1
ボ 1
ポ 1
マ 1
ミ 1
ム 1
メ 1
モ 1
ャ 1
ヤ 1
ュ 1
ユ 1
ョ 1
ヨ 1
ラ 1
リ 1
ル 1
レ 1
ロ 1
ワ 1
ヱ 1
ヲ 1
ン 1
ヴ 1
ヵ 1
ヶ 1
・ 1
ー 1
ㆍ 1
䲁 1
一 1
丁 1
七 1
万 1
丈 1
三 1
上 1
下 1
不 1
与 1
丐 1
丑 1
专 1
且 1
丕 1
世 1
丘 1
丙 1
业 1
丛 1
东 1
丝 1
丞 1
丟 1
両 1
丢 1
两 1
严 1
並 1
丧 1
个 1
丫 1
中 1
丰 1
串 1
临 1
丸 1
丹 1
为 1
主 1
丼 1
丽 1
举 1
乂 1
乃 1
久 1
么 1
义 1
之 1
乌 1
乍 1
乎 1
乏 1
乐 1
乒 1
乓 1
乔 1
乖 1
乗 1
乘 1
乙 1
九 1
乞 1
也 1
习 1
乡 1
书 1
乩 1
买 1
乱 1
乳 1
乾 1
亀 1
亂 1
了 1
予 1
争 1
事 1
二 1
于 1
亏 1
云 1
互 1
五 1
井 1
亘 1
亚 1
些 1
亜 1
亞 1
亟 1
亡 1
亢 1
交 1
亥 1
亦 1
产 1
亨 1
亩 1
享 1
京 1
亭 1
亮 1
亲 1
亳 1
亵 1
亶 1
人 1
亿 1
什 1
仁 1
仄 1
仅 1
仆 1
仇 1
今 1
介 1
仍 1
从 1
仏 1
仑 1
仓 1
仔 1
仕 1
他 1
仗 1
付 1
仙 1
仝 1
仡 1
代 1
令 1
以 1
仪 1
们 1
仮 1
仰 1
仲 1
件 1
价 1
任 1
份 1
仿 1
企 1
伉 1
伊 1
伍 1
伎 1
伏 1
伐 1
休 1
众 1
优 1
伙 1
会 1
伝 1
伞 1
伟 1
传 1
伤 1
伦 1
伪 1
伯 1
估 1
伴 1
伶 1
伸 1
伺 1
似 1
伽 1
佃 1
但 1
佇 1
佈 1
位 1
低 1
住 1
佐 1
佑 1
体 1
佔 1
何 1
佗 1
佘 1
余 1
佚 1
佛 1
作 1
佞 1
佟 1
你 1
佢 1
佣 1
佤 1
佥 1
佩 1
佬 1
佯 1
佰 1
佳 1
併 1
佶 1
佼 1
使 1
侃 1
侄 1
來 1
侈 1
例 1
侍 1
侏 1
侑 1
侖 1
侗 1
供 1
依 1
侠 1
価 1
侣 1
侦 1
侧 1
侨 1
侬 1
侮 1
侯 1
侵 1
侶 1
便 1
俁 1
係 1
促 1
俄 1
俊 1
俎 1
俏 1
俐 1
俑 1
俗 1
俘 1
俚 1
保 1
俞 1
俟 1
俠 1
信 1
俣 1
俨 1
俩 1
俪 1
俭 1
修 1
俯 1
俱 1
俳 1
俵 1
俶 1
俸 1
俺 1
俾 1
倆 1
倉 1
個 1
倍 1
們 1
倒 1
倖 1
倘 1
候 1
倚 1
借 1
倡 1
倣 1
値 1
倦 1
倩 1
倪 1
倫 1
倬 1
倭 1
倶 1
倹 1
债 1
倻 1
值 1
倾 1
偃 1
假 1
偈 1
偉 1
偏 1
偕 1
做 1
停 1
健 1
偲 1
側 1
偵 1
偶 1
偷 1
偽 1
偿 1
傀 1
傅 1
傈 1
傍 1
傑 1
傕 1
傘 1
備 1
傢 1
傣 1
储 1
催 1
傭 1
傲 1
傳 1
債 1
傷 1
傻 1
傾 1
僅 1
僉 1
働 1
像 1
僑 1
僕 1
僖 1
僚 1
僧 1
僭 1
僮 1
僱 1
僳 1
僵 1
價 1
僻 1
儀 1
儁 1
儂 1
億 1
儉 1
儋 1
儒 1
儘 1
儚 1
償 1
儡 1
優 1
儲 1
儷 1
儼 1
儿 1
兀 1
允 1
元 1
兄 1
充 1
兆 1
兇 1
先 1
光 1
克 1
兌 1
免 1
兎 1
児 1
兑 1
兒 1
兔 1
兖 1
兗 1
党 1
兜 1
兢 1
入 1
內 1
全 1
兩 1
兪 1
八 1
公 1
六 1
兮 1
兰 1
共 1
关 1
兴 1
兵 1
其 1
具 1
典 1
兹 1
养 1
兼 1
兽 1
冀 1
内 1
円 1
冇 1
冈 1
冉 1
冊 1
册 1
再 1
冏 1
冑 1
冒 1
冕 1
冗 1
写 1
军 1
农 1
冠 1
冢 1
冤 1
冥 1
冨 1
冪 1
冬 1
冯 1
冰 1
冲 1
决 1
冴 1
况 1
冶 1
冷 1
冻 1
冼 1
净 1
凄 1
准 1
凉 1
凋 1
凌 1
凍 1
减 1
凑 1
凛 1
凜 1
凝 1
几 1
凡 1
凤 1
処 1
凧 1
凪 1
凭 1
凯 1
凰 1
凱 1
凳 1
凶 1
凸 1
凹 1
出 1
击 1
函 1
凿 1
刀 1
刁 1
刃 1
分 1
切 1
刈 1
刊 1
刍 1
刎 1
刑 1
划 1
列 1
刘 1
则 1
刚 1
创 1
初 1
删 1
判 1
別 1
利 1
刪 1
别 1
刮 1
到 1
制 1
刷 1
券 1
刹 1
刺 1
刻 1
剂 1
剃 1
則 1
削 1
剋 1
剌 1
前 1
剎 1
剑 1
剔 1
剖 1
剛 1
剝 1
剣 1
剤 1
剥 1
剧 1
剩 1
剪 1
副 1
剰 1
割 1
創 1
剷 1
剽 1
剿 1
劃 1
劇 1
劈 1
劉 1
劍 1
劑 1
力 1
劝 1
办 1
功 1
加 1
务 1
劣 1
动 1
助 1
努 1
劫 1
劭 1
励 1
劲 1
劳 1
労 1
効 1
劾 1
势 1
勁 1
勃 1
勅 1
勇 1
勉 1
勋 1
勐 1
勒 1
動 1
勖 1
勗 1
勘 1
務 1
勛 1
勝 1
勞 1
募 1
勢 1
勤 1
勧 1
勲 1
勳 1
勵 1
勸 1
勺 1
勻 1
勾 1
勿 1
匀 1
匂 1
包 1
匆 1
匈 1
匍 1
匐 1
匕 1
化 1
北 1
匙 1
匝 1
匠 1
匡 1
匣 1
匪 1
匮 1
匯 1
匱 1
匹 1
区 1
医 1
匾 1
匿 1
區 1
十 1
千 1
卅 1
升 1
午 1
卉 1
半 1
卍 1
华 1
协 1
卑 1
卒 1
卓 1
協 1
单 1
卖 1
南 1
単 1
博 1
卜 1
卞 1
占 1
卡 1
卢 1
卤 1
卦 1
卧 1
卫 1
卯 1
印 1
危 1
即 1
却 1
卵 1
卷 1
卸 1
卻 1
卿 1
厂 1
厄 1
厅 1
历 1
厉 1
压 1
厌 1
厕 1
厘 1
厚 1
厝 1
原 1
厢 1
厥 1
厦 1
厨 1
厩 1
厭 1
厲 1
厳 1
去 1
县 1
参 1
參 1
又 1
叉 1
及 1
友 1
双 1
反 1
収 1
发 1
叔 1
取 1
受 1
变 1
叙 1
叛 1
叟 1
叠 1
叡 1
叢 1
口 1
古 1
句 1
另 1
叩 1
只 1
叫 1
召 1
叭 1
叮 1
可 1
台 1
叱 1
史 1
右 1
叶 1
号 1
司 1
叹 1
叻 1
吁 1
吃 1
各 1
合 1
吉 1
吊 1
吋 1
同 1
名 1
后 1
吏 1
吐 1
向 1
吒 1
吓 1
吕 1
吗 1
君 1
吝 1
吞 1
吟 1
吠 1
吡 1
否 1
吧 1
吨 1
吩 1
含 1
听 1
启 1
吳 1
吴 1
吵 1
吶 1
吸 1
吹 1
吻 1
吼 1
吾 1
呀 1
呂 1
呆 1
呈 1
呉 1
告 1
呋 1
呎 1
呐 1
呑 1
呕 1
员 1
呛 1
呜 1
呟 1
呢 1
呤 1
周 1
呪 1
味 1
呵 1
呼 1
命 1
咀 1
咁 1
咄 1
咆 1
咋 1
和 1
咎 1
咏 1
咐 1
咒 1
咕 1
咖 1
咤 1
咥 1
咨 1
咩 1
咪 1
咫 1
咬 1
咯 1
咱 1
咲 1
咳 1
咸 1
咽 1
哀 1
品 1
哄 1
哆 1
哇 1
哈 1
哉 1
哌 1
响 1
哑 1
哗 1
員 1
哥 1
哦 1
哨 1
哩 1
哪 1
哭 1
哮 1
哲 1
哺 1
哼 1
唁 1
唄 1
唆 1
唇 1
唐 1
唑 1
唔 1
唖 1
唤 1
售 1
唯 1
唱 1
唸 1
唾 1
啄 1
商 1
啉 1
啊 1
問 1
啓 1
啖 1
啜 1
啞 1
啟 1
啡 1
啤 1
啦 1
啮 1
啰 1
啶 1
啸 1
啼 1
啾 1
喀 1
喂 1
喃 1
善 1
喆 1
喇 1
喉 1
喊 1
喋 1
喔 1
喘 1
喙 1
喚 1
喜 1
喝 1
喧 1
喩 1
喪 1
喫 1
喬 1
單 1
喰 1
喱 1
喵 1
営 1
喷 1
喻 1
嗅 1
嗎 1
嗓 1
嗚 1
嗜 1
嗟 1
嗣 1
嗪 1
嗽 1
嘅 1
嘆 1
嘉 1
嘌 1
嘎 1
嘔 1
嘗 1
嘘 1
嘛 1
嘟 1
嘢 1
嘧 1
嘩 1
嘯 1
嘱 1
嘲 1
嘴 1
嘶 1
嘻 1
嘿 1
噁 1
噂 1
噌 1
噗 1
噛 1
噜 1
器 1
噩 1
噪 1
噬 1
噴 1
噶 1
噸 1
噹 1
噺 1
噻 1
嚆 1
嚇 1
嚎 1
嚕 1
嚢 1
嚣 1
嚮 1
嚴 1
嚼 1
囁 1
囂 1
囃 1
囉 1
囊 1
囍 1
囑 1
囗 1
囚 1
四 1
回 1
因 1
团 1
団 1
囤 1
囧 1
囪 1
园 1
囮 1
困 1
囱 1
囲 1
図 1
围 1
固 1
国 1
图 1
圀 1
圃 1
圆 1
圈 1
國 1
圍 1
圏 1
園 1
圓 1
圖 1
團 1
圜 1
土 1
圣 1
圧 1
在 1
圩 1
圪 1
圭 1
地 1
圳 1
场 1
圻 1
圾 1
址 1
坂 1
均 1
坊 1
坍 1
坎 1
坏 1
坐 1
坑 1
块 1
坚 1
坛 1
坜 1
坝 1
坞 1
坟 1
坠 1
坡 1
坤 1
坦 1
坨 1
坪 1
坳 1
坵 1
坷 1
垂 1
垃 1
垄 1
垅 1
型 1
垌 1
垒 1
垓 1
垛 1
垟 1
垠 1
垢 1
垣 1
垦 1
垩 1
垫 1
垭 1
垮 1
垸 1
埃 1
埋 1
城 1
埔 1
埕 1
埗 1
埜 1
域 1
埠 1
埡 1
埤 1
埭 1
埴 1
執 1
培 1
基 1
埼 1
堀 1
堂 1
堃 1
堅 1
堆 1
堇 1
堊 1
堑 1
堕 1
堡 1
堤 1
堪 1
堯 1
堰 1
報 1
場 1
堵 1
堺 1
塀 1
塁 1
塊 1
塌 1
塑 1
塔 1
塗 1
塘 1
塙 1
塚 1
塞 1
塢 1
塩 1
填 1
塬 1
塭 1
塵 1
塹 1
塾 1
墀 1
境 1
墅 1
墉 1
墊 1
墓 1
増 1
墘 1
墙 1
墜 1
增 1
墟 1
墨 1
墩 1
墮 1
墳 1
墾 1
壁 1
壇 1
壊 1
壌 1
壑 1
壓 1
壕 1
壘 1
壞 1
壟 1
壠 1
壢 1
壤 1
壩 1
士 1
壬 1
壮 1
壯 1
声 1
壱 1
売 1
壳 1
壶 1
壷 1
壹 1
壺 1
壽 1
处 1
备 1
変 1
复 1
夏 1
夔 1
夕 1
外 1
夙 1
多 1
夜 1
够 1
夠 1
夢 1
夥 1
大 1
天 1
太 1
夫 1
夭 1
央 1
夯 1
失 1
头 1
夷 1
夸 1
夹 1
夺 1
夾 1
奄 1
奇 1
奈 1
奉 1
奋 1
奎 1
奏 1
奐 1
契 1
奔 1
奕 1
奖 1
套 1
奘 1
奚 1
奠 1
奢 1
奥 1
奧 1
奨 1
奪 1
奬 1
奭 1
奮 1
女 1
奴 1
奶 1
奸 1
她 1
好 1
如 1
妃 1
妄 1
妆 1
妇 1
妈 1
妊 1
妍 1
妒 1
妓 1
妖 1
妙 1
妝 1
妞 1
妤 1
妥 1
妨 1
妬 1
妮 1
妲 1
妳 1
妹 1
妻 1
妾 1
姆 1
姉 1
姊 1
始 1
姍 1
姐 1
姑 1
姓 1
委 1
姗 1
姚 1
姜 1
姝 1
姥 1
姦 1
姨 1
姪 1
姫 1
姬 1
姶 1
姻 1
姿 1
威 1
娃 1
娄 1
娅 1
娇 1
娑 1
娘 1
娛 1
娜 1
娟 1
娠 1
娣 1
娥 1
娩 1
娯 1
娱 1
娴 1
娶 1
娼 1
婁 1
婆 1
婉 1
婕 1
婚 1
婢 1
婦 1
婧 1
婪 1
婭 1
婴 1
婶 1
婷 1
婺 1
婿 1
媒 1
媚 1
媛 1
媲 1
媳 1
媽 1
嫁 1
嫂 1
嫉 1
嫌 1
嫔 1
嫖 1
嫡 1
嫣 1
嫦 1
嫩 1
嫻 1
嬅 1
嬉 1
嬌 1
嬢 1
嬤 1
嬪 1
嬬 1
嬰 1
嬴 1
嬷 1
嬸 1
孀 1
子 1
孔 1
孕 1
孖 1
字 1
存 1
孙 1
孚 1
孛 1
孜 1
孝 1
孟 1
孢 1
季 1
孤 1
学 1
孩 1
孫 1
孰 1
孵 1
學 1
孺 1
孽 1
宁 1
它 1
宅 1
宇 1
守 1
安 1
宋 1
完 1
宍 1
宏 1
宓 1
宕 1
宗 1
官 1
宙 1
定 1
宛 1
宜 1
宝 1
实 1
実 1
宠 1
审 1
客 1
宣 1
室 1
宥 1
宦 1
宪 1
宫 1
宮 1
宰 1
害 1
宴 1
宵 1
家 1
宸 1
容 1
宽 1
宾 1
宿 1
寂 1
寄 1
寅 1
密 1
寇 1
富 1
寐 1
寒 1
寓 1
寔 1
寛 1
寝 1
寞 1
察 1
寡 1
寢 1
寥 1
實 1
寧 1
寨 1
審 1
寫 1
寬 1
寮 1
寰 1
寵 1
寶 1
寸 1
对 1
寺 1
寻 1
导 1
対 1
寿 1
封 1
専 1
射 1
将 1
將 1
專 1
尉 1
尊 1
尋 1
對 1
導 1
小 1
少 1
尔 1
尕 1
尖 1
尘 1
尙 1
尚 1
尝 1
尤 1
尧 1
尬 1
尭 1
就 1
尴 1
尷 1
尸 1
尹 1
尺 1
尻 1
尼 1
尽 1
尾 1
尿 1
局 1
屁 1
层 1
居 1
屆 1
屈 1
届 1
屋 1
屍 1
屎 1
屏 1
屑 1
展 1
属 1
屠 1
屡 1
屢 1
層 1
履 1
屬 1
屯 1
山 1
屹 1
屿 1
岁 1
岂 1
岌 1
岐 1
岑 1
岔 1
岖 1
岗 1
岘 1
岙 1
岚 1
岛 1
岡 1
岩 1
岫 1
岬 1
岭 1
岱 1
岳 1
岷 1
岸 1
峁 1
峇 1
峒 1
峙 1
峠 1
峡 1
峦 1
峨 1
峪 1
峭 1
峯 1
峰 1
峴 1
島 1
峻 1
峽 1
崁 1
崇 1
崎 1
崑 1
崔 1
崖 1
崗 1
崙 1
崛 1
崧 1
崩 1
崭 1
崴 1
嵇 1
嵊 1
嵋 1
嵌 1
嵐 1
嵜 1
嵩 1
嵯 1
嶄 1
嶇 1
嶋 1
嶠 1
嶷 1
嶺 1
嶼 1
嶽 1
巅 1
巌 1
巍 1
巒 1
巔 1
巖 1
川 1
州 1
巡 1
巢 1
巣 1
工 1
左 1
巧 1
巨 1
巩 1
巫 1
差 1
己 1
已 1
巳 1
巴 1
巷 1
巻 1
巽 1
巾 1
币 1
市 1
布 1
帅 1
帆 1
师 1
希 1
帐 1
帑 1
帕 1
帖 1
帘 1
帚 1
帛 1
帜 1
帝 1
帥 1
带 1
帧 1
師 1
席 1
帮 1
帯 1
帰 1
帳 1
帶 1
帷 1
常 1
帽 1
幀 1
幂 1
幅 1
幇 1
幌 1
幔 1
幕 1
幟 1
幡 1
幢 1
幣 1
幫 1
干 1
平 1
年 1
并 1
幸 1
幹 1
幺 1
幻 1
幼 1
幽 1
幾 1
广 1
庁 1
広 1
庄 1
庆 1
庇 1
床 1
序 1
庐 1
库 1
应 1
底 1
店 1
庙 1
庚 1
府 1
庞 1
废 1
庠 1
度 1
座 1
庫 1
庭 1
庵 1
庶 1
康 1
庸 1
庾 1
廁 1
廂 1
廃 1
廈 1
廉 1
廊 1
廍 1
廓 1
廖 1
廚 1
廟 1
廠 1
廢 1
廣 1
廬 1
廳 1
延 1
廷 1
建 1
廻 1
廼 1
廿 1
开 1
弁 1
异 1
弃 1
弄 1
弈 1
弊 1
弋 1
式 1
弐 1
弑 1
弒 1
弓 1
弔 1
引 1
弗 1
弘 1
弛 1
弟 1
张 1
弥 1
弦 1
弧 1
弩 1
弭 1
弯 1
弱 1
張 1
強 1
弹 1
强 1
弼 1
弾 1
彅 1
彈 1
彊 1
彌 1
彎 1
归 1
当 1
录 1
彗 1
彙 1
彝 1
形 1
彤 1
彥 1
彦 1
彧 1
彩 1
彪 1
彫 1
彬 1
彭 1
彰 1
影 1
彷 1
役 1
彻 1
彼 1
彿 1
往 1
征 1
径 1
待 1
徇 1
很 1
徊 1
律 1
後 1
徐 1
徑 1
徒 1
従 1
得 1
徘 1
徙 1
從 1
徠 1
御 1
徨 1
復 1
循 1
徭 1
微 1
徳 1
徴 1
徵 1
德 1
徹 1
徽 1
心 1
必 1
忆 1
忌 1
忍 1
忏 1
忒 1
志 1
忘 1
忙 1
応 1
忠 1
忤 1
忧 1
快 1
忱 1
念 1
忻 1
忽 1
忿 1
怀 1
态 1
怎 1
怒 1
怕 1
怖 1
怛 1
怜 1
思 1
怠 1
怡 1
急 1
性 1
怨 1
怪 1
怯 1
总 1
恂 1
恃 1
恆 1
恋 1
恍 1
恐 1
恒 1
恕 1
恙 1
恚 1
恢 1
恣 1
恤 1
恥 1
恨 1
恩 1
恪 1
恬 1
恭 1
息 1
恰 1
恳 1
恵 1
恶 1
恺 1
恼 1
恽 1
恿 1
悄 1
悅 1
悉 1
悌 1
悍 1
悔 1
悖 1
悚 1
悟 1
悠 1
患 1
悦 1
您 1
悩 1
悪 1
悬 1
悯 1
悲 1
悶 1
悸 1
悼 1
情 1
惇 1
惊 1
惑 1
惕 1
惚 1
惛 1
惜 1
惟 1
惠 1
惡 1
惣 1
惧 1
惨 1
惩 1
惮 1
惯 1
惰 1
惱 1
惲 1
想 1
惶 1
惹 1
惺 1
愁 1
愈 1
愉 1
愍 1
意 1
愔 1
愕 1
愚 1
愛 1
感 1
愤 1
愧 1
愫 1
愷 1
愼 1
愿 1
慄 1
慈 1
態 1
慌 1
慎 1
慑 1
慕 1
慘 1
慚 1
慟 1
慢 1
慣 1
慧 1
慨 1
慮 1
慰 1
慳 1
慶 1
慷 1
慾 1
憂 1
憍 1
憎 1
憐 1
憑 1
憚 1
憤 1
憧 1
憨 1
憩 1
憫 1
憬 1
憲 1
憶 1
憾 1
懂 1
懇 1
懈 1
應 1
懋 1
懐 1
懒 1
懦 1
懲 1
懶 1
懷 1
懸 1
懺 1
懼 1
懿 1
戀 1
戈 1
戊 1
戌 1
戍 1
戎 1
戏 1
成 1
我 1
戒 1
或 1
战 1
戚 1
戛 1
戟 1
戡 1
戦 1
截 1
戮 1
戯 1
戰 1
戱 1
戲 1
戳 1
戴 1
戶 1
户 1
戸 1
戻 1
戾 1
房 1
所 1
扁 1
扇 1
扈 1
扉 1
手 1
才 1
扎 1
扑 1
扒 1
打 1
扔 1
払 1
托 1
扛 1
扣 1
执 1
扩 1
扫 1
扬 1
扭 1
扮 1
扯 1
扰 1
扱 1
扳 1
扶 1
批 1
扼 1
找 1
承 1
技 1
抄 1
抉 1
把 1
抑 1
抒 1
抓 1
投 1
抖 1
抗 1
折 1
抚 1
抛 1
抜 1
択 1
抢 1
护 1
报 1
抨 1
披 1
抬 1
抱 1
抵 1
抹 1
押 1
抽 1
拂 1
担 1
拆 1
拇 1
拉 1
拋 1
拌 1
拍 1
拏 1
拐 1
拒 1
拓 1
拔 1
拖 1
拗 1
拘 1
拙 1
拚 1
招 1
拜 1
拝 1
拟 1
拠 1
拡 1
拢 1
拣 1
拥 1
拦 1
拨 1
择 1
括 1
拭 1
拮 1
拯 1
拱 1
拳 1
拶 1
拷 1
拼 1
拾 1
拿 1
持 1
挂 1
指 1
按 1
挑 1
挖 1
挙 1
挚 1
挛 1
挝 1
挞 1
挟 1
挠 1
挡 1
挣 1
挤 1
挥 1
挨 1
挪 1
挫 1
振 1
挹 1
挺 1
挽 1
挾 1
挿 1
捆 1
捉 1
捌 1
捍 1
捏 1
捐 1
捕 1
捗 1
捜 1
捞 1
损 1
捡 1
换 1
捣 1
捧 1
捨 1
捩 1
据 1
捲 1
捷 1
捺 1
捻 1
掀 1
掃 1
授 1
掉 1
掌 1
掏 1
排 1
掖 1
掘 1
掙 1
掛 1
掟 1
掠 1
採 1
探 1
掣 1
接 1
控 1
推 1
掩 1
措 1
掬 1
掲 1
掳 1
掴 1
掷 1
掸 1
掺 1
掻 1
掾 1
揀 1
揃 1
揄 1
揆 1
揉 1
描 1
提 1
插 1
揖 1
揚 1
換 1
握 1
揣 1
揪 1
揭 1
揮 1
援 1
揶 1
揺 1
揽 1
搁 1
搅 1
損 1
搏 1
搖 1
搗 1
搜 1
搞 1
搬 1
搭 1
搶 1
携 1
搾 1
摂 1
摄 1
摆 1
摇 1
摊 1
摒 1
摔 1
摘 1
摠 1
摧 1
摩 1
摯 1
摸 1
摹 1
摺 1
摻 1
撃 1
撇 1
撈 1
撐 1
撑 1
撒 1
撓 1
撕 1
撞 1
撣 1
撤 1
撥 1
撫 1
播 1
撮 1
撰 1
撲 1
撹 1
撻 1
撼 1
撿 1
擁 1
擂 1
擄 1
擅 1
擇 1
擊 1
擋 1
操 1
擎 1
擒 1
擔 1
擘 1
據 1
擠 1
擢 1
擦 1
擧 1
擬 1
擱 1
擲 1
擴 1
擺 1
擾 1
攀 1
攏 1
攔 1
攘 1
攜 1
攝 1
攣 1
攤 1
攪 1
攫 1
攬 1
支 1
收 1
攸 1
改 1
攻 1
放 1
政 1
故 1
效 1
敌 1
敍 1
敎 1
敏 1
救 1
敕 1
敖 1
敗 1
敘 1
教 1
敛 1
敝 1
敞 1
敢 1
散 1
敦 1
敬 1
数 1
敲 1
整 1
敵 1
敷 1
數 1
斂 1
斃 1
文 1
斉 1
斋 1
斌 1
斎 1
斐 1
斑 1
斗 1
料 1
斛 1
斜 1
斟 1
斡 1
斤 1
斥 1
斧 1
斩 1
斬 1
断 1
斯 1
新 1
斷 1
方 1
於 1
施 1
旁 1
旃 1
旅 1
旋 1
旌 1
族 1
旗 1
旛 1
无 1
既 1
日 1
旦 1
旧 1
旨 1
早 1
旬 1
旭 1
旱 1
时 1
旷 1
旺 1
旻 1
旼 1
昀 1
昂 1
昆 1
昇 1
昉 1
昊 1
昌 1
明 1
昏 1
易 1
昔 1
昕 1
昙 1
星 1
映 1
春 1
昧 1
昨 1
昭 1
是 1
昱 1
昴 1
昵 1
昶 1
昼 1
显 1
晁 1
時 1
晃 1
晉 1
晋 1
晏 1
晒 1
晓 1
晔 1
晕 1
晖 1
晗 1
晚 1
晝 1
晞 1
晟 1
晤 1
晦 1
晨 1
晩 1
普 1
景 1
晰 1
晴 1
晶 1
晷 1
智 1
暁 1
暂 1
暄 1
暇 1
暈 1
暉 1
暎 1
暐 1
暑 1
暖 1
暗 1
暠 1
暢 1
暦 1
暧 1
暨 1
暫 1
暮 1
暱 1
暴 1
暹 1
曄 1
曆 1
曇 1
曉 1
曖 1
曙 1
曜 1
曝 1
曠 1
曦 1
曬 1
曰 1
曲 1
曳 1
更 1
曷 1
書 1
曹 1
曺 1
曼 1
曽 1
曾 1
替 1
最 1
會 1
月 1
有 1
朋 1
服 1
朐 1
朔 1
朕 1
朗 1
望 1
朝 1
期 1
朦 1
朧 1
木 1
未 1
末 1
本 1
札 1
术 1
朱 1
朴 1
朵 1
机 1
朽 1
杀 1
杂 1
权 1
杆 1
杉 1
李 1
杏 1
材 1
村 1
杓 1
杖 1
杜 1
杞 1
束 1
杠 1
条 1
杣 1
来 1
杨 1
杭 1
杯 1
杰 1
東 1
杲 1
杵 1
杷 1
杼 1
松 1
板 1
极 1
构 1
枇 1
枉 1
枋 1
析 1
枕 1
林 1
枚 1
果 1
枝 1
枠 1
枡 1
枢 1
枣 1
枪 1
枫 1
枭 1
枯 1
架 1
枷 1
柄 1
柊 1
柏 1
某 1
柑 1
染 1
柔 1
柘 1
柚 1
柜 1
柝 1
柞 1
柠 1
查 1
柩 1
柬 1
柯 1
柱 1
柳 1
柴 1
柵 1
査 1
柾 1
柿 1
栃 1
栄 1
栅 1
标 1
栈 1
栉 1
栋 1
栎 1
栏 1
树 1
栓 1
栖 1
栗 1
栞 1
校 1
栢 1
栩 1
株 1
栱 1
样 1
核 1
根 1
格 1
栽 1
栾 1
桀 1
桁 1
桂 1
桃 1
桅 1
框 1
案 1
桌 1
桐 1
桑 1
桓 1
桔 1
桜 1
桝 1
桟 1
桢 1
档 1
桥 1
桦 1
桧 1
桨 1
桩 1
桶 1
桿 1
梁 1
梅 1
梓 1
梗 1
條 1
梟 1
梢 1
梦 1
梧 1
梨 1
梭 1
梯 1
械 1
梱 1
梳 1
梵 1
梶 1
检 1
棄 1
棉 1
棋 1
棍 1
棒 1
棕 1
棗 1
棘 1
棚 1
棟 1
棠 1
棣 1
棧 1
棨 1
森 1
棱 1
棲 1
棵 1
棹 1
棺 1
棻 1
椀 1
椅 1
椋 1
植 1
椎 1
椒 1
椙 1
検 1
椭 1
椰 1
椴 1
椽 1
椿 1
楊 1
楓 1
楔 1
楕 1
楚 1
楞 1
楠 1
楡 1
楢 1
楣 1
楨 1
楫 1
業 1
楯 1
極 1
楷 1
楸 1
楹 1
楼 1
楽 1
概 1
榄 1
榆 1
榈 1
榊 1
榎 1
榔 1
榕 1
榘 1
榛 1
榜 1
榨 1
榭 1
榮 1
榴 1
榷 1
榻 1
槃 1
槇 1
構 1
槌 1
槍 1
槎 1
槐 1
槓 1
様 1
槙 1
槛 1
槟 1
槭 1
槳 1
槻 1
槽 1
槿 1
樁 1
樂 1
樅 1
樊 1
樋 1
樑 1
樓 1
標 1
樞 1
樟 1
模 1
樣 1
権 1
横 1
樫 1
樱 1
樵 1
樸 1
樹 1
樺 1
樽 1
橄 1
橇 1
橈 1
橋 1
橐 1
橘 1
橙 1
機 1
橡 1
橢 1
橫 1
橿 1
檀 1
檄 1
檎 1
檐 1
檔 1
檗 1
檜 1
檢 1
檬 1
檯 1
檳 1
檸 1
檻 1
櫂 1
櫃 1
櫓 1
櫚 1
櫛 1
櫟 1
櫥 1
櫻 1
欄 1
欅 1
權 1
欒 1
欖 1
欠 1
次 1
欢 1
欣 1
欧 1
欲 1
欺 1
欽 1
款 1
歆 1
歇 1
歉 1
歌 1
歎 1
歐 1
歓 1
歙 1
歡 1
止 1
正 1
此 1
步 1
武 1
歧 1
歩 1
歪 1
歯 1
歲 1
歳 1
歴 1
歷 1
歸 1
歹 1
死 1
歼 1
歿 1
殁 1
殃 1
殆 1
殇 1
殉 1
殊 1
残 1
殖 1
殘 1
殡 1
殤 1
殭 1
殯 1
殲 1
殴 1
段 1
殷 1
殺 1
殻 1
殼 1
殿 1
毀 1
毁 1
毅 1
毆 1
毋 1
母 1
毎 1
每 1
毒 1
毓 1
比 1
毕 1
毗 1
毘 1
毙 1
毛 1
毫 1
毬 1
毯 1
氈 1
氏 1
氐 1
民 1
氓 1
气 1
気 1
氙 1
氛 1
氟 1
氢 1
氣 1
氦 1
氧 1
氨 1
氫 1
氮 1
氯 1
氰 1
水 1
氵 1
氷 1
永 1
氹 1
氾 1
汀 1
汁 1
求 1
汇 1
汉 1
汎 1
汐 1
汕 1
汗 1
汙 1
汚 1
汛 1
汜 1
汝 1
汞 1
江 1
池 1
污 1
汤 1
汨 1
汪 1
汰 1
汲 1
汴 1
汶 1
決 1
汽 1
汾 1
沁 1
沂 1
沃 1
沅 1
沆 1
沈 1
沉 1
沌 1
沐 1
沒 1
沓 1
沔 1
沖 1
沙 1
沛 1
沟 1
没 1
沢 1
沥 1
沦 1
沧 1
沪 1
沫 1
沭 1
沮 1
沱 1
河 1
沸 1
油 1
治 1
沼 1
沽 1
沾 1
沿 1
況 1
泄 1
泉 1
泊 1
泌 1
泓 1
法 1
泗 1
泛 1
泠 1
泡 1
波 1
泣 1
泥 1
注 1
泪 1
泮 1
泰 1
泳 1
泵 1
泷 1
泸 1
泻 1
泼 1
泽 1
泾 1
洁 1
洄 1
洋 1
洒 1
洗 1
洙 1
洛 1
洞 1
津 1
洩 1
洪 1
洮 1
洱 1
洲 1
洵 1
洸 1
洹 1
活 1
洼 1
洽 1
派 1
流 1
浄 1
浅 1
浆 1
浇 1
浊 1
测 1
济 1
浏 1
浑 1
浒 1
浓 1
浔 1
浙 1
浚 1
浜 1
浣 1
浦 1
浩 1
浪 1
浬 1
浮 1
浴 1
海 1
浸 1
涂 1
涅 1
涇 1
消 1
涉 1
涌 1
涎 1
涓 1
涕 1
涙 1
涛 1
涝 1
涟 1
涡 1
涤 1
润 1
涧 1
涨 1
涩 1
涪 1
涯 1
液 1
涵 1
涸 1
涼 1
涿 1
淀 1
淄 1
淅 1
淆 1
淇 1
淋 1
淑 1
淖 1
淘 1
淚 1
淝 1
淞 1
淡 1
淤 1
淦 1
淨 1
淪 1
淫 1
淮 1
深 1
淳 1
淵 1
混 1
淸 1
淹 1
淺 1
添 1
淼 1
清 1
渇 1
済 1
渉 1
渊 1
渋 1
渍 1
渎 1
渐 1
渓 1
渔 1
渕 1
渗 1
渚 1
減 1
渝 1
渠 1
渡 1
渣 1
渤 1
渥 1
渦 1
温 1
測 1
渭 1
港 1
渲 1
渴 1
游 1
渺 1
渾 1
湃 1
湄 1
湊 1
湍 1
湖 1
湘 1
湛 1
湟 1
湧 1
湮 1
湯 1
湳 1
湾 1
湿 1
満 1
溃 1
溅 1
溉 1
源 1
準 1
溜 1
溝 1
溟 1
溢 1
溥 1
溧 1
溪 1
溫 1
溯 1
溴 1
溶 1
溺 1
滁 1
滂 1
滄 1
滅 1
滇 1
滉 1
滋 1
滌 1
滎 1
滑 1
滓 1
滔 1
滕 1
滘 1
滙 1
滚 1
滝 1
滞 1
满 1
滤 1
滥 1
滦 1
滨 1
滩 1
滬 1
滯 1
滲 1
滴 1
滸 1
滾 1
滿 1
漁 1
漂 1
漆 1
漉 1
漏 1
漑 1
漓 1
演 1
漕 1
漠 1
漢 1
漣 1
漩 1
漪 1
漫 1
漬 1
漯 1
漱 1
漲 1
漳 1
漸 1
漾 1
漿 1
潁 1
潇 1
潍 1
潑 1
潔 1
潘 1
潛 1
潜 1
潞 1
潟 1
潢 1
潤 1
潦 1
潭 1
潮 1
潯 1
潰 1
潼 1
澀 1
澁 1
澂 1
澄 1
澆 1
澈 1
澍 1
澎 1
澗 1
澜 1
澡 1
澤 1
澧 1
澪 1
澱 1
澳 1
澹 1
激 1
濁 1
濂 1
濃 1
濑 1
濒 1
濕 1
濛 1
濟 1
濠 1
濡 1
濤 1
濫 1
濬 1
濮 1
濯 1
濰 1
濱 1
濺 1
濾 1
瀆 1
瀉 1
瀋 1
瀏 1
瀑 1
瀕 1
瀘 1
瀚 1
瀛 1
瀝 1
瀞 1
瀟 1
瀧 1
瀨 1
瀬 1
瀾 1
灌 1
灏 1
灑 1
灘 1
灝 1
灞 1
灣 1
灤 1
火 1
灭 1
灯 1
灰 1
灵 1
灶 1
灸 1
灼 1
災 1
灾 1
灿 1
炀 1
炅 1
炉 1
炊 1
炎 1
炒 1
炔 1
炘 1
炙 1
炜 1
炫 1
炬 1
炭 1
炮 1
炯 1
炱 1
炳 1
炸 1
点 1
為 1
炼 1
炽 1
烁 1
烂 1
烃 1
烈 1
烏 1
烘 1
烙 1
烛 1
烟 1
烤 1
烦 1
烧 1
烨 1
烫 1
热 1
烯 1
烴 1
烷 1
烹 1
烽 1
焉 1
焊 1
焔 1
焕 1
焘 1
焙 1
焚 1
焜 1
無 1
焦 1
焯 1
焰 1
然 1
焼 1
煇 1
煉 1
煊 1
煌 1
煎 1
煒 1
煕 1
煙 1
煜 1
煞 1
煤 1
煥 1
煦 1
照 1
煩 1
煬 1
煮 1
煲 1
煽 1
熄 1
熊 1
熏 1
熒 1
熔 1
熙 1
熟 1
熬 1
熱 1
熵 1
熹 1
熾 1
燁 1
燃 1
燈 1
燊 1
燎 1
燐 1
燒 1
燕 1
燙 1
營 1
燥 1
燦 1
燧 1
燭 1
燮 1
燻 1
燼 1
燾 1
燿 1
爆 1
爍 1
爐 1
爛 1
爨 1
爪 1
爬 1
爭 1
爰 1
爱 1
爲 1
爵 1
父 1
爷 1
爸 1
爹 1
爺 1
爻 1
爽 1
爾 1
牆 1
片 1
版 1
牌 1
牒 1
牙 1
牛 1
牝 1
牟 1
牠 1
牡 1
牢 1
牧 1
物 1
牲 1
牵 1
特 1
牺 1
牽 1
犀 1
犁 1
犍 1
犛 1
犠 1
犢 1
犧 1
犬 1
犯 1
状 1
犹 1
狀 1
狂 1
狄 1
狐 1
狒 1
狗 1
狙 1
狛 1
狠 1
狡 1
狩 1
独 1
狭 1
狮 1
狱 1
狸 1
狹 1
狼 1
猎 1
猕 1
猖 1
猗 1
猛 1
猜 1
猝 1
猟 1
猥 1
猩 1
猪 1
猫 1
献 1
猴 1
猶 1
猷 1
猾 1
猿 1
獄 1
獅 1
獎 1
獏 1
獐 1
獠 1
獣 1
獨 1
獲 1
獵 1
獸 1
獺 1
獻 1
獼 1
獾 1
玄 1
率 1
玉 1
王 1
玖 1
玛 1
玟 1
玠 1
玥 1
玩 1
玫 1
玮 1
环 1
现 1
玲 1
玳 1
玺 1
玻 1
珀 1
珂 1
珅 1
珈 1
珉 1
珊 1
珍 1
珏 1
珑 1
珙 1
珞 1
珠 1
珣 1
珥 1
珩 1
珪 1
班 1
珮 1
珲 1
現 1
球 1
琅 1
理 1
琇 1
琉 1
琊 1
琏 1
琐 1
琚 1
琛 1
琢 1
琥 1
琦 1
琨 1
琪 1
琬 1
琮 1
琰 1
琲 1
琳 1
琴 1
琵 1
琶 1
琼 1
琿 1
瑀 1
瑁 1
瑄 1
瑋 1
瑕 1
瑗 1
瑙 1
瑚 1
瑛 1
瑜 1
瑞 1
瑟 1
瑠 1
瑣 1
瑤 1
瑩 1
瑪 1
瑭 1
瑯 1
瑰 1
瑳 1
瑶 1
瑾 1
璀 1
璁 1
璃 1
璇 1
璉 1
璋 1
璐 1
璘 1
璜 1
璞 1
璟 1
璠 1
璧 1
璨 1
璩 1
環 1
璽 1
璿 1
瓊 1
瓌 1
瓏 1
瓒 1
瓘 1
瓚 1
瓜 1
瓢 1
瓣 1
瓦 1
瓮 1
瓯 1
瓶 1
瓷 1
甄 1
甌 1
甑 1
甕 1
甘 1
甚 1
甜 1
生 1
產 1
産 1
甥 1
甦 1
用 1
甩 1
甫 1
甬 1
甯 1
田 1
由 1
甲 1
申 1
电 1
男 1
甸 1
町 1
画 1
畅 1
畈 1
界 1
畏 1
畑 1
畔 1
留 1
畜 1
畝 1
畠 1
畢 1
略 1
畦 1
番 1
畫 1
異 1
畲 1
畳 1
畴 1
畵 1
當 1
畷 1
畸 1
畿 1
疃 1
疆 1
疇 1
疊 1
疋 1
疎 1
疏 1
疑 1
疗 1
疚 1
疟 1
疣 1
疤 1
疫 1
疮 1
疯 1
疱 1
疲 1
疵 1
疸 1
疹 1
疼 1
疽 1
疾 1
病 1
症 1
痊 1
痍 1
痒 1
痔 1
痕 1
痘 1
痙 1
痛 1
痞 1
痢 1
痣 1
痩 1
痪 1
痰 1
痴 1
痹 1
痺 1
瘀 1
瘋 1
瘍 1
瘓 1
瘟 1
瘠 1
瘡 1
瘤 1
瘦 1
瘧 1
瘫 1
瘴 1
瘾 1
療 1
癇 1
癌 1
癒 1
癖 1
癡 1
癢 1
癫 1
癬 1
癮 1
癱 1
癲 1
癸 1
発 1
登 1
發 1
白 1
百 1
皂 1
的 1
皆 1
皇 1
皈 1
皋 1
皎 1
皐 1
皓 1
皖 1
皝 1
皮 1
皱 1
皺 1
皿 1
盂 1
盃 1
盆 1
盈 1
益 1
盎 1
盏 1
盐 1
监 1
盒 1
盔 1
盖 1
盗 1
盘 1
盛 1
盜 1
盞 1
盟 1
盡 1
監 1
盤 1
盧 1
盪 1
目 1
盯 1
盱 1
盲 1
直 1
相 1
盼 1
盾 1
省 1
眉 1
看 1
県 1
眙 1
眞 1
真 1
眠 1
眩 1
眶 1
眷 1
眸 1
眺 1
眼 1
眾 1
着 1
睇 1
睐 1
睛 1
睞 1
睡 1
睢 1
督 1
睦 1
睨 1
睪 1
睫 1
睹 1
睽 1
睾 1
睿 1
瞄 1
瞋 1
瞎 1
瞑 1
瞒 1
瞞 1
瞥 1
瞧 1
瞩 1
瞪 1
瞬 1
瞭 1
瞰 1
瞳 1
瞻 1
瞼 1
瞿 1
矗 1
矚 1
矛 1
矜 1
矢 1
矣 1
知 1
矧 1
矩 1
矫 1
短 1
矮 1
矯 1
石 1
矶 1
矽 1
矿 1
码 1
砂 1
砌 1
砍 1
研 1
砕 1
砖 1
砚 1
砥 1
砦 1
砧 1
砲 1
破 1
砷 1
砸 1
砺 1
砾 1
础 1
硅 1
硏 1
硒 1
硕 1
硝 1
硤 1
硫 1
硬 1
确 1
硯 1
硼 1
碁 1
碇 1
碉 1
碌 1
碍 1
碎 1
碑 1
碓 1
碕 1
碗 1
碘 1
碚 1
碟 1
碣 1
碧 1
碩 1
碰 1
碱 1
碳 1
確 1
碼 1
碾 1
磁 1
磅 1
磊 1
磋 1
磐 1
磔 1
磚 1
磡 1
磨 1
磯 1
磷 1
磺 1
礁 1
礎 1
礙 1
礦 1
礪 1
礫 1
礬 1
示 1
礼 1
社 1
祀 1
祁 1
祂 1
祇 1
祈 1
祉 1
祐 1
祓 1
祕 1
祖 1
祗 1
祚 1
祜 1
祝 1
神 1
祟 1
祠 1
祢 1
祥 1
票 1
祭 1
祯 1
祷 1
祸 1
祺 1
祿 1
禀 1
禁 1
禄 1
禅 1
禍 1
禎 1
福 1
禕 1
禛 1
禦 1
禧 1
禪 1
禮 1
禰 1
禱 1
禹 1
禺 1
离 1
禽 1
禾 1
禿 1
秀 1
私 1
秃 1
秉 1
秋 1
种 1
科 1
秒 1
秘 1
租 1
秣 1
秤 1
秦 1
秧 1
秩 1
积 1
称 1
移 1
秽 1
稀 1
稅 1
程 1
稍 1
税 1
稔 1
稗 1
稙 1
稚 1
稜 1
稟 1
稠 1
稣 1
種 1
稱 1
稲 1
稳 1
稷 1
稻 1
稼 1
稽 1
稿 1
穀 1
穂 1
穆 1
穌 1
積 1
穎 1
穏 1
穗 1
穢 1
穣 1
穩 1
穫 1
穰 1
穴 1
究 1
穷 1
穹 1
空 1
穿 1
突 1
窃 1
窄 1
窈 1
窑 1
窒 1
窓 1
窖 1
窗 1
窘 1
窜 1
窝 1
窟 1
窥 1
窦 1
窩 1
窪 1
窮 1
窯 1
窺 1
窿 1
竄 1
竇 1
竈 1
竊 1
立 1
竑 1
竖 1
站 1
竜 1
竞 1
竟 1
章 1
竣 1
童 1
竪 1
竭 1
端 1
競 1
竹 1
竺 1
竿 1
笃 1
笈 1
笋 1
笏 1
笑 1
笔 1
笙 1
笛 1
笞 1
笠 1
笥 1
符 1
笨 1
第 1
笹 1
笺 1
笼 1
筆 1
筈 1
等 1
筋 1
筍 1
筏 1
筐 1
筑 1
筒 1
答 1
策 1
筛 1
筝 1
筠 1
筧 1
筱 1
筲 1
筵 1
筷 1
筹 1
签 1
简 1
箇 1
箋 1
箍 1
箏 1
箐 1
箒 1
箔 1
箕 1
算 1
管 1
箪 1
箭 1
箱 1
箴 1
箸 1
節 1
篁 1
範 1
篆 1
篇 1
築 1
篙 1
篝 1
篠 1
篡 1
篤 1
篩 1
篭 1
篮 1
篱 1
篷 1
簇 1
簒 1
簗 1
簡 1
簧 1
簪 1
簫 1
簷 1
簸 1
簽 1
簾 1
簿 1
籃 1
籌 1
籍 1
籐 1
籠 1
籤 1
籬 1
籲 1
米 1
类 1
籽 1
籾 1
粉 1
粋 1
粒 1
粕 1
粗 1
粘 1
粛 1
粟 1
粤 1
粥 1
粧 1
粪 1
粮 1
粱 1
粲 1
粵 1
粹 1
粽 1
精 1
粿 1
糊 1
糎 1
糕 1
糖 1
糙 1
糜 1
糞 1
糟 1
糠 1
糧 1
糯 1
糸 1
系 1
糾 1
紀 1
紂 1
約 1
紅 1
紆 1
紇 1
紊 1
紋 1
納 1
紐 1
紓 1
純 1
紗 1
紘 1
紙 1
級 1
紛 1
素 1
紡 1
索 1
紧 1
紫 1
紬 1
紮 1
累 1
細 1
紳 1
紹 1
紺 1
終 1
絃 1
組 1
絆 1
経 1
結 1
絕 1
絞 1
絡 1
絢 1
給 1
絨 1
絮 1
統 1
絲 1
絳 1
絵 1
絶 1
絹 1
綁 1
綏 1
經 1
継 1
続 1
綜 1
綠 1
綢 1
綦 1
綫 1
綬 1
維 1
綱 1
網 1
綴 1
綸 1
綺 1
綻 1
綽 1
綾 1
綿 1
緊 1
緋 1
総 1
緑 1
緒 1
線 1
緝 1
緞 1
締 1
緣 1
編 1
緩 1
緬 1
緯 1
練 1
緹 1
緻 1
縁 1
縄 1
縉 1
縊 1
縛 1
縞 1
縣 1
縦 1
縫 1
縮 1
縱 1
縷 1
縻 1
總 1
績 1
繁 1
繆 1
繇 1
繊 1
繋 1
繍 1
織 1
繕 1
繚 1
繞 1
繡 1
繩 1
繪 1
繫 1
繭 1
繰 1
繳 1
繹 1
繼 1
纂 1
續 1
纏 1
纓 1
纖 1
纜 1
纠 1
红 1
纤 1
纥 1
约 1
级 1
纪 1
纬 1
纮 1
纯 1
纱 1
纲 1
纳 1
纵 1
纶 1
纷 1
纸 1
纹 1
纺 1
纽 1
纾 1
线 1
绀 1
练 1
组 1
绅 1
细 1
织 1
终 1
绊 1
绍 1
绎 1
经 1
绑 1
绒 1
结 1
绕 1
绘 1
给 1
绚 1
绛 1
络 1
绝 1
绞 1
统 1
绢 1
绣 1
绥 1
继 1
绩 1
绪 1
绫 1
续 1
绮 1
绯 1
绰 1
绳 1
维 1
绵 1
绶 1
绸 1
综 1
绽 1
绿 1
缀 1
缅 1
缆 1
缇 1
缉 1
缎 1
缓 1
缔 1
缕 1
编 1
缘 1
缙 1
缚 1
缝 1
缠 1
缢 1
缨 1
缩 1
缪 1
缮 1
缴 1
缶 1
缸 1
缺 1
缽 1
罂 1
罄 1
罌 1
罐 1
网 1
罔 1
罕 1
罗 1
罚 1
罠 1
罢 1
罩 1
罪 1
置 1
罰 1
署 1
罵 1
罷 1
罹 1
羁 1
羅 1
羈 1
羊 1
羌 1
美 1
羔 1
羚 1
羞 1
羟 1
羡 1
羣 1
群 1
羥 1
羧 1
羨 1
義 1
羯 1
羰 1
羲 1
羹 1
羽 1
羿 1
翁 1
翅 1
翊 1
翌 1
翎 1
習 1
翔 1
翘 1
翟 1
翠 1
翡 1
翦 1
翩 1
翰 1
翱 1
翳 1
翹 1
翻 1
翼 1
耀 1
老 1
考 1
者 1
耆 1
而 1
耍 1
耐 1
耒 1
耕 1
耗 1
耘 1
耙 1
耦 1
耳 1
耶 1
耸 1
耻 1
耽 1
耿 1
聂 1
聆 1
聊 1
聋 1
职 1
联 1
聖 1
聘 1
聚 1
聞 1
聡 1
聪 1
聯 1
聰 1
聲 1
聳 1
聴 1
聶 1
職 1
聽 1
聾 1
聿 1
肃 1
肄 1
肅 1
肆 1
肇 1
肉 1
肋 1
肌 1
肖 1
肘 1
肚 1
肛 1
肝 1
肠 1
股 1
肢 1
肤 1
肥 1
肩 1
肪 1
肯 1
肱 1
育 1
肴 1
肺 1
肽 1
肾 1
肿 1
胀 1
胁 1
胃 1
胄 1
胆 1
背 1
胎 1
胖 1
胚 1
胜 1
胞 1
胡 1
胤 1
胥 1
胪 1
胭 1
胰 1
胱 1
胴 1
胶 1
胸 1
胺 1
能 1
脂 1
脅 1
脆 1
脇 1
脈 1
脉 1
脊 1
脏 1
脐 1
脑 1
脖 1
脚 1
脛 1
脩 1
脫 1
脯 1
脱 1
脳 1
脷 1
脸 1
脹 1
脾 1
腈 1
腊 1
腋 1
腌 1
腎 1
腐 1
腑 1
腓 1
腔 1
腕 1
腥 1
腦 1
腫 1
腮 1
腰 1
腱 1
腳 1
腸 1
腹 1
腺 1
腻 1
腾 1
腿 1
膀 1
膏 1
膚 1
膛 1
膜 1
膝 1
膠 1
膣 1
膦 1
膨 1
膩 1
膳 1
膵 1
膺 1
膽 1
膿 1
臀 1
臂 1
臆 1
臉 1
臍 1
臓 1
臘 1
臚 1
臟 1
臣 1
臥 1
臧 1
臨 1
自 1
臭 1
至 1
致 1
臺 1
臻 1
臼 1
舂 1
舅 1
舆 1
與 1
興 1
舉 1
舊 1
舌 1
舍 1
舎 1
舐 1
舒 1
舔 1
舖 1
舗 1
舘 1
舛 1
舜 1
舞 1
舟 1
航 1
舫 1
般 1
舰 1
舱 1
舵 1
舶 1
舷 1
船 1
舺 1
艇 1
艉 1
艋 1
艏 1
艘 1
艙 1
艤 1
艦 1
艮 1
良 1
艰 1
艱 1
色 1
艳 1
艶 1
艷 1
艺 1
艾 1
节 1
芋 1
芍 1
芎 1
芒 1
芙 1
芜 1
芝 1
芥 1
芦 1
芩 1
芬 1
芭 1
芮 1
芯 1
花 1
芳 1
芷 1
芸 1
芹 1
芻 1
芽 1
芾 1
苅 1
苇 1
苍 1
苏 1
苑 1
苓 1
苔 1
苗 1
苛 1
苞 1
苟 1
苣 1
若 1
苦 1
苫 1
苯 1
英 1
苳 1
苴 1
苷 1
苹 1
苺 1
苻 1
苾 1
茂 1
范 1
茄 1
茅 1
茉 1
茎 1
茗 1
茛 1
茜 1
茧 1
茨 1
茫 1
茱 1
茲 1
茴 1
茵 1
茶 1
茸 1
茹 1
荀 1
荃 1
荆 1
草 1
荊 1
荏 1
荐 1
荒 1
荔 1
荖 1
荘 1
荚 1
荟 1
荡 1
荣 1
荥 1
荧 1
荫 1
药 1
荷 1
荻 1
荼 1
莅 1
莆 1
莉 1
莊 1
莎 1
莒 1
莓 1
莖 1
莘 1
莞 1
莢 1
莪 1
莫 1
莱 1
莲 1
获 1
莹 1
莺 1
莽 1
莿 1
菀 1
菁 1
菅 1
菇 1
菈 1
菊 1
菌 1
菏 1
菓 1
菖 1
菘 1
菜 1
菟 1
菠 1
菩 1
菫 1
華 1
菰 1
菱 1
菲 1
菴 1
菸 1
萃 1
萄 1
萇 1
萊 1
萌 1
萍 1
萎 1
萘 1
萝 1
萤 1
营 1
萧 1
萨 1
萩 1
萬 1
萱 1
萸 1
萼 1
落 1
葆 1
葉 1
著 1
葛 1
葡 1
董 1
葦 1
葫 1
葬 1
葭 1
葱 1
葳 1
葵 1
葺 1
蒂 1
蒋 1
蒐 1
蒔 1
蒙 1
蒜 1
蒞 1
蒨 1
蒯 1
蒲 1
蒴 1
蒸 1
蒼 1
蒿 1
蓀 1
蓁 1
蓄 1
蓉 1
蓋 1
蓑 1
蓓 1
蓝 1
蓟 1
蓬 1
蓮 1
蓼 1
蔑 1
蔓 1
蔔 1
蔗 1
蔚 1
蔡 1
蔣 1
蔥 1
蔦 1
蔬 1
蔭 1
蔵 1
蔷 1
蔻 1
蔽 1
蕁 1
蕃 1
蕈 1
蕉 1
蕊 1
蕎 1
蕗 1
蕙 1
蕨 1
蕩 1
蕪 1
蕭 1
蕲 1
蕴 1
蕾 1
薄 1
薇 1
薈 1
薊 1
薑 1
薔 1
薗 1
薙 1
薛 1
薦 1
薨 1
薩 1
薪 1
薫 1
薬 1
薮 1
薯 1
薰 1
薹 1
藁 1
藉 1
藍 1
藏 1
藐 1
藓 1
藔 1
藕 1
藜 1
藝 1
藤 1
藥 1
藩 1
藪 1
藹 1
藺 1
藻 1
蘂 1
蘄 1
蘆 1
蘇 1
蘊 1
蘋 1
蘑 1
蘚 1
蘭 1
蘿 1
虎 1
虏 1
虐 1
虑 1
虔 1
處 1
虚 1
虛 1
虜 1
虞 1
號 1
虢 1
虧 1
虫 1
虬 1
虱 1
虹 1
虻 1
虽 1
虾 1
蚀 1
蚁 1
蚂 1
蚊 1
蚌 1
蚓 1
蚕 1
蚜 1
蚝 1
蚣 1
蚤 1
蚩 1
蚪 1
蚬 1
蚵 1
蚶 1
蛇 1
蛉 1
蛊 1
蛋 1
蛍 1
蛎 1
蛙 1
蛛 1
蛞 1
蛟 1
蛤 1
蛭 1
蛮 1
蛯 1
蛱 1
蛸 1
蛹 1
蛺 1
蛻 1
蛾 1
蜀 1
蜂 1
蜃 1
蜆 1
蜈 1
蜍 1
蜒 1
蜓 1
蜕 1
蜗 1
蜘 1
蜚 1
蜜 1
蜡 1
蜢 1
蜥 1
蜱 1
蜴 1
蜷 1
蜻 1
蜿 1
蝇 1
蝉 1
蝋 1
蝌 1
蝎 1
蝓 1
蝕 1
蝗 1
蝙 1
蝠 1
蝦 1
蝨 1
蝮 1
蝰 1
蝴 1
蝶 1
蝸 1
蝽 1
螂 1
螃 1
螈 1
融 1
螞 1
螢 1
螯 1
螳 1
螺 1
蟄 1
蟆 1
蟋 1
蟑 1
蟒 1
蟠 1
蟬 1
蟲 1
蟹 1
蟻 1
蟾 1
蠅 1
蠍 1
蠕 1
蠟 1
蠡 1
蠢 1
蠣 1
蠱 1
蠶 1
蠻 1
血 1
衅 1
衆 1
行 1
衍 1
術 1
衔 1
街 1
衙 1
衛 1
衝 1
衞 1
衡 1
衢 1
衣 1
补 1
表 1
衫 1
衬 1
衮 1
衰 1
衷 1
衿 1
袁 1
袂 1
袈 1
袋 1
袍 1
袒 1
袖 1
袜 1
袞 1
被 1
袭 1
袱 1
袴 1
裁 1
裂 1
装 1
裏 1
裔 1
裕 1
裘 1
裙 1
補 1
裝 1
裟 1
裡 1
裤 1
裨 1
裳 1
裴 1
裸 1
裹 1
製 1
裾 1
複 1
褐 1
褒 1
褚 1
褥 1
褪 1
褫 1
褲 1
褶 1
褻 1
襄 1
襖 1
襟 1
襪 1
襯 1
襲 1
西 1
要 1
覃 1
覆 1
覇 1
見 1
規 1
覓 1
視 1
覗 1
覚 1
覧 1
親 1
覲 1
観 1
覺 1
覽 1
觀 1
见 1
观 1
规 1
觅 1
视 1
览 1
觉 1
觐 1
角 1
解 1
触 1
觸 1
言 1
訂 1
訃 1
計 1
訊 1
討 1
訓 1
訖 1
託 1
記 1
訛 1
訝 1
訟 1
訣 1
訥 1
訪 1
設 1
許 1
訳 1
訴 1
訶 1
診 1
註 1
証 1
詐 1
詔 1
評 1
詛 1
詞 1
詠 1
詡 1
詢 1
詣 1
試 1
詩 1
詫 1
詭 1
詮 1
詰 1
話 1
該 1
詳 1
詹 1
誅 1
誇 1
誉 1
誌 1
認 1
誑 1
誓 1
誕 1
誘 1
語 1
誠 1
誡 1
誣 1
誤 1
誥 1
誦 1
誨 1
說 1
説 1
読 1
誰 1
課 1
誹 1
誼 1
調 1
諂 1
談 1
請 1
諌 1
諍 1
諏 1
諒 1
論 1
諜 1
諡 1
諦 1
諧 1
諫 1
諭 1
諮 1
諱 1
諶 1
諷 1
諸 1
諺 1
諾 1
謀 1
謁 1
謂 1
謄 1
謊 1
謎 1
謐 1
謗 1
謙 1
謚 1
講 1
謝 1
謠 1
謡 1
謨 1
謫 1
謬 1
謳 1
謹 1
證 1
譏 1
識 1
譙 1
譚 1
譜 1
警 1
譬 1
譯 1
議 1
譲 1
譴 1
護 1
譽 1
讀 1
讃 1
變 1
讐 1
讒 1
讓 1
讚 1
讞 1
计 1
订 1
认 1
讥 1
讨 1
让 1
讫 1
训 1
议 1
讯 1
记 1
讲 1
讳 1
讶 1
讷 1
许 1
讹 1
论 1
讼 1
讽 1
设 1
访 1
诀 1
证 1
诃 1
评 1
诅 1
识 1
诈 1
诉 1
诊 1
词 1
诏 1
译 1
诒 1
试 1
诗 1
诘 1
诚 1
诛 1
话 1
诞 1
诠 1
诡 1
询 1
诣 1
该 1
详 1
诩 1
诫 1
诬 1
语 1
误 1
诰 1
诱 1
诲 1
说 1
诵 1
请 1
诸 1
诹 1
诺 1
读 1
诽 1
课 1
谁 1
调 1
谅 1
谈 1
谊 1
谋 1
谍 1
谎 1
谏 1
谐 1
谒 1
谓 1
谔 1
谕 1
谚 1
谛 1
谜 1
谟 1
谢 1
谣 1
谤 1
谥 1
谦 1
谨 1
谪 1
谬 1
谭 1
谯 1
谱 1
谳 1
谴 1
谷 1
谿 1
豁 1
豆 1
豈 1
豊 1
豌 1
豎 1
豐 1
豔 1
豚 1
象 1
豪 1
豫 1
豬 1
豹 1
豺 1
貂 1
貌 1
貓 1
貘 1
貝 1
貞 1
負 1
財 1
貢 1
貧 1
貨 1
販 1
貪 1
貫 1
責 1
貯 1
貰 1
貳 1
貴 1
貶 1
買 1
貸 1
費 1
貼 1
貽 1
貿 1
賀 1
賁 1
賂 1
賃 1
賄 1
資 1
賈 1
賊 1
賑 1
賓 1
賚 1
賛 1
賜 1
賞 1
賠 1
賡 1
賢 1
賣 1
賤 1
賦 1
質 1
賭 1
賴 1
賺 1
購 1
賽 1
贄 1
贅 1
贈 1
贊 1
贋 1
贍 1
贏 1
贓 1
贖 1
贛 1
贝 1
贞 1
负 1
贡 1
财 1
责 1
贤 1
败 1
账 1
货 1
质 1
贩 1
贪 1
贫 1
贬 1
购 1
贮 1
贯 1
贰 1
贱 1
贲 1
贴 1
贵 1
贷 1
贸 1
费 1
贺 1
贻 1
贼 1
贾 1
贿 1
赁 1
赂 1
赃 1
资 1
赈 1
赉 1
赋 1
赌 1
赎 1
赏 1
赐 1
赓 1
赔 1
赖 1
赚 1
赛 1
赞 1
赠 1
赢 1
赣 1
赤 1
赦 1
赫 1
赭 1
走 1
赳 1
赴 1
赵 1
赶 1
起 1
趁 1
超 1
越 1
趋 1
趕 1
趙 1
趟 1
趣 1
趨 1
足 1
趴 1
趾 1
跃 1
跆 1
跋 1
跌 1
跑 1
跖 1
跛 1
距 1
跟 1
跡 1
跤 1
跨 1
跪 1
路 1
跳 1
践 1
跻 1
踊 1
踏 1
踐 1
踝 1
踞 1
踢 1
踩 1
踪 1
踴 1
踵 1
蹂 1
蹄 1
蹇 1
蹈 1
蹊 1
蹟 1
蹤 1
蹦 1
蹲 1
蹴 1
蹼 1
躁 1
躇 1
躊 1
躋 1
躍 1
躙 1
身 1
躬 1
躯 1
躲 1
躺 1
軀 1
車 1
軋 1
軌 1
軍 1
軒 1
軔 1
軛 1
軟 1
転 1
軫 1
軸 1
軻 1
軼 1
軽 1
軾 1
較 1
載 1
輌 1
輒 1
輓 1
輔 1
輕 1
輛 1
輜 1
輝 1
輟 1
輦 1
輩 1
輪 1
輯 1
輸 1
輻 1
輾 1
輿 1
轄 1
轅 1
轉 1
轍 1
轎 1
轟 1
轢 1
车 1
轧 1
轨 1
轩 1
转 1
轭 1
轮 1
软 1
轰 1
轴 1
轶 1
轸 1
轻 1
轼 1
载 1
轿 1
较 1
辄 1
辅 1
辆 1
辈 1
辉 1
辍 1
辐 1
辑 1
输 1
辕 1
辖 1
辗 1
辙 1
辛 1
辜 1
辞 1
辟 1
辣 1
辦 1
辨 1
辩 1
辫 1
辭 1
辮 1
辯 1
辰 1
辱 1
農 1
边 1
辺 1
辻 1
込 1
辽 1
达 1
辿 1
迁 1
迂 1
迄 1
迅 1
过 1
迈 1
迎 1
运 1
近 1
返 1
还 1
这 1
进 1
远 1
违 1
连 1
迟 1
迥 1
迦 1
迩 1
迪 1
迫 1
迭 1
述 1
迴 1
迷 1
迹 1
迺 1
追 1
退 1
送 1
适 1
逃 1
逅 1
逆 1
选 1
逊 1
逍 1
透 1
逐 1
递 1
逓 1
途 1
逕 1
逗 1
這 1
通 1
逛 1
逝 1
逞 1
速 1
造 1
逢 1
連 1
逮 1
週 1
進 1
逵 1
逸 1
逻 1
逼 1
逾 1
遁 1
遂 1
遅 1
遇 1
遊 1
運 1
遍 1
過 1
遏 1
遐 1
道 1
達 1
違 1
遗 1
遙 1
遜 1
遞 1
遠 1
遡 1
遣 1
遥 1
適 1
遭 1
遮 1
遲 1
遴 1
遵 1
遷 1
選 1
遹 1
遺 1
遼 1
遽 1
避 1
邀 1
邁 1
邂 1
邃 1
還 1
邇 1
邈 1
邉 1
邊 1
邏 1
邑 1
邓 1
邕 1
邛 1
邝 1
邠 1
邢 1
那 1
邦 1
邨 1
邪 1
邬 1
邮 1
邯 1
邰 1
邱 1
邳 1
邵 1
邸 1
邹 1
邺 1
邻 1
邾 1
郁 1
郃 1
郊 1
郎 1
郑 1
郗 1
郜 1
郝 1
郞 1
郡 1
郢 1
郤 1
郧 1
部 1
郭 1
郯 1
郴 1
郵 1
郷 1
郸 1
都 1
鄂 1
鄉 1
鄒 1
鄔 1
鄕 1
鄖 1
鄙 1
鄚 1
鄞 1
鄢 1
鄧 1
鄭 1
鄯 1
鄰 1
鄱 1
鄲 1
鄴 1
鄺 1
酉 1
酋 1
酌 1
配 1
酎 1
酐 1
酒 1
酔 1
酗 1
酚 1
酢 1
酣 1
酥 1
酪 1
酬 1
酮 1
酯 1
酰 1
酱 1
酵 1
酶 1
酷 1
酸 1
酿 1
醃 1
醇 1
醉 1
醋 1
醍 1
醐 1
醒 1
醚 1
醛 1
醜 1
醣 1
醤 1
醫 1
醬 1
醮 1
醯 1
醴 1
醸 1
釀 1
釁 1
采 1
釈 1
釉 1
释 1
釋 1
里 1
重 1
野 1
量 1
釐 1
金 1
釗 1
釘 1
釜 1
針 1
釣 1
釧 1
釵 1
鈉 1
鈍 1
鈔 1
鈕 1
鈞 1
鈣 1
鈦 1
鈴 1
鈷 1
鈺 1
鈾 1
鈿 1
鉀 1
鉄 1
鉅 1
鉈 1
鉉 1
鉑 1
鉗 1
鉛 1
鉞 1
鉢 1
鉤 1
鉱 1
鉴 1
鉻 1
鉾 1
銀 1
銃 1
銅 1
銑 1
銓 1
銖 1
銘 1
銚 1
銜 1
銨 1
銭 1
銮 1
銳 1
銷 1
銹 1
鋁 1
鋅 1
鋏 1
鋒 1
鋤 1
鋪 1
鋭 1
鋰 1
鋳 1
鋸 1
鋼 1
錄 1
錆 1
錐 1
錕 1
錘 1
錚 1
錠 1
錢 1
錦 1
錨 1
錫 1
錬 1
錮 1
錯 1
録 1
錳 1
錶 1
鍊 1
鍋 1
鍍 1
鍔 1
鍛 1
鍬 1
鍮 1
鍵 1
鍼 1
鍾 1
鎂 1
鎊 1
鎌 1
鎏 1
鎔 1
鎖 1
鎗 1
鎚 1
鎢 1
鎧 1
鎬 1
鎭 1
鎮 1
鎳 1
鏃 1
鏈 1
鏑 1
鏗 1
鏞 1
鏟 1
鏡 1
鏢 1
鏽 1
鐘 1
鐮 1
鐳 1
鐵 1
鐸 1
鑄 1
鑑 1
鑒 1
鑣 1
鑫 1
鑰 1
鑲 1
鑼 1
鑽 1
鑾 1
鑿 1
针 1
钉 1
钊 1
钏 1
钓 1
钗 1
钙 1
钚 1
钛 1
钜 1
钝 1
钞 1
钟 1
钠 1
钢 1
钥 1
钦 1
钧 1
钨 1
钩 1
钮 1
钰 1
钱 1
钳 1
钴 1
钵 1
钺 1
钻 1
钾 1
铀 1
铁 1
铂 1
铃 1
铅 1
铉 1
铎 1
铜 1
铝 1
铠 1
铨 1
铬 1
铭 1
铮 1
铲 1
铳 1
铵 1
银 1
铸 1
铺 1
链 1
铿 1
销 1
锁 1
锂 1
锄 1
锅 1
锈 1
锋 1
锌 1
锐 1
错 1
锚 1
锟 1
锡 1
锢 1
锣 1
锤 1
锥 1
锦 1
锭 1
键 1
锯 1
锰 1
锷 1
锺 1
锻 1
镀 1
镁 1
镇 1
镍 1
镐 1
镑 1
镕 1
镖 1
镛 1
镜 1
镭 1
镰 1
镶 1
長 1
长 1
門 1
閃 1
閆 1
閉 1
開 1
閏 1
閑 1
閒 1
間 1
閔 1
閘 1
関 1
閣 1
閤 1
閥 1
閨 1
閩 1
閬 1
閭 1
閱 1
閲 1
閻 1
閾 1
闆 1
闇 1
闊 1
闍 1
闐 1
闕 1
闖 1
闘 1
關 1
闡 1
闢 1
门 1
闪 1
闫 1
闭 1
问 1
闯 1
闰 1
闲 1
间 1
闵 1
闷 1
闸 1
闹 1
闺 1
闻 1
闽 1
闾 1
阀 1
阁 1
阅 1
阆 1
阇 1
阉 1
阎 1
阐 1
阔 1
阗 1
阙 1
阜 1
队 1
阡 1
阪 1
阮 1
阯 1
阱 1
防 1
阳 1
阴 1
阵 1
阶 1
阻 1
阿 1
陀 1
陂 1
附 1
际 1
陆 1
陇 1
陈 1
陋 1
陌 1
降 1
限 1
陕 1
陛 1
陝 1
陞 1
陟 1
陡 1
院 1
陣 1
除 1
陥 1
陨 1
险 1
陪 1
陰 1
陲 1
陳 1
陵 1
陶 1
陷 1
陸 1
険 1
陽 1
隅 1
隆 1
隈 1
隊 1
隋 1
隍 1
階 1
随 1
隐 1
隔 1
隕 1
隗 1
隘 1
隙 1
際 1
障 1
隠 1
隣 1
隧 1
隨 1
險 1
隱 1
隴 1
隶 1
隷 1
隸 1
隻 1
隼 1
隽 1
难 1
雀 1
雁 1
雄 1
雅 1
集 1
雇 1
雉 1
雋 1
雌 1
雍 1
雏 1
雑 1
雒 1
雕 1
雖 1
雙 1
雛 1
雜 1
雞 1
離 1
難 1
雨 1
雪 1
雫 1
雯 1
雰 1
雲 1
雳 1
零 1
雷 1
雹 1
電 1
雾 1
需 1
霄 1
霆 1
震 1
霉 1
霊 1
霍 1
霏 1
霑 1
霓 1
霖 1
霜 1
霞 1
霧 1
霰 1
露 1
霸 1
霹 1
霽 1
霾 1
靂 1
靄 1
靈 1
靑 1
青 1
靓 1
靖 1
静 1
靚 1
靛 1
靜 1
非 1
靠 1
靡 1
面 1
革 1
靭 1
靱 1
靳 1
靴 1
靶 1
靺 1
靼 1
鞄 1
鞅 1
鞆 1
鞋 1
鞍 1
鞏 1
鞑 1
鞘 1
鞠 1
鞨 1
鞭 1
鞮 1
韃 1
韋 1
韌 1
韓 1
韜 1
韦 1
韧 1
韩 1
韬 1
韭 1
韮 1
音 1
韵 1
韶 1
韻 1
響 1
頁 1
頂 1
頃 1
項 1
順 1
須 1
頊 1
頌 1
預 1
頑 1
頒 1
頓 1
頗 1
領 1
頚 1
頜 1
頡 1
頤 1
頬 1
頭 1
頰 1
頸 1
頹 1
頻 1
頼 1
顆 1
題 1
額 1
顎 1
顏 1
顒 1
顔 1
顕 1
顗 1
願 1
顛 1
類 1
顥 1
顧 1
顫 1
顯 1
顱 1
页 1
顶 1
顷 1
项 1
顺 1
须 1
顽 1
顾 1
顿 1
颁 1
颂 1
预 1
颅 1
领 1
颇 1
颈 1
颉 1
颊 1
颌 1
颍 1
颐 1
频 1
颓 1
颖 1
颗 1
题 1
颚 1
颜 1
额 1
颠 1
颤 1
風 1
颯 1
颱 1
颶 1
飄 1
飆 1
风 1
飒 1
飓 1
飘 1
飙 1
飛 1
飞 1
食 1
飢 1
飪 1
飯 1
飲 1
飴 1
飼 1
飽 1
飾 1
餃 1
餅 1
餉 1
養 1
餌 1
餐 1
餓 1
餘 1
餚 1
餡 1
館 1
餵 1
餾 1
饅 1
饉 1
饋 1
饌 1
饑 1
饒 1
饗 1
饥 1
饪 1
饭 1
饮 1
饰 1
饱 1
饲 1
饵 1
饶 1
饷 1
饺 1
饼 1
饿 1
馀 1
馅 1
馆 1
馈 1
馏 1
首 1
馗 1
香 1
馥 1
馨 1
馬 1
馭 1
馮 1
馱 1
馳 1
馴 1
駁 1
駄 1
駅 1
駆 1
駐 1
駒 1
駕 1
駙 1
駛 1
駝 1
駭 1
駱 1
駿 1
騎 1
騒 1
験 1
騙 1
騨 1
騫 1
騰 1
騷 1
驃 1
驅 1
驊 1
驍 1
驒 1
驕 1
驗 1
驚 1
驛 1
驟 1
驢 1
驤 1
驥 1
驪 1
马 1
驭 1
驮 1
驯 1
驰 1
驱 1
驳 1
驴 1
驶 1
驸 1
驹 1
驻 1
驼 1
驾 1
驿 1
骁 1
骂 1
骄 1
骅 1
骆 1
骇 1
骊 1
验 1
骏 1
骑 1
骗 1
骚 1
骞 1
骠 1
骤 1
骥 1
骧 1
骨 1
骰 1
骷 1
骸 1
骼 1
髄 1
髅 1
髏 1
髑 1
髒 1
髓 1
體 1
高 1
髙 1
髦 1
髪 1
髭 1
髮 1
髯 1
髷 1
髻 1
鬃 1
鬆 1
鬍 1
鬘 1
鬚 1
鬣 1
鬥 1
鬧 1
鬱 1
鬼 1
魁 1
魂 1
魃 1
魄 1
魅 1
魍 1
魎 1
魏 1
魔 1
魚 1
魨 1
魮 1
魯 1
魷 1
鮃 1
鮋 1
鮎 1
鮑 1
鮟 1
鮠 1
鮡 1
鮨 1
鮫 1
鮭 1
鮮 1
鯉 1
鯊 1
鯖 1
鯙 1
鯛 1
鯡 1
鯤 1
鯨 1
鯰 1
鯱 1
鯽 1
鰂 1
鰈 1
鰍 1
鰐 1
鰓 1
鰕 1
鰨 1
鰭 1
鰲 1
鰹 1
鰺 1
鰻 1
鱂 1
鱇 1
鱈 1
鱉 1
鱒 1
鱔 1
鱗 1
鱧 1
鱨 1
鱲 1
鱷 1
鱸 1
鱼 1
鱿 1
鲀 1
鲁 1
鲆 1
鲇 1
鲈 1
鲉 1
鲍 1
鲑 1
鲛 1
鲜 1
鲤 1
鲨 1
鲫 1
鲱 1
鲶 1
鲷 1
鲸 1
鲽 1
鲿 1
鳃 1
鳄 1
鳅 1
鳉 1
鳌 1
鳍 1
鳎 1
鳕 1
鳖 1
鳗 1
鳚 1
鳝 1
鳞 1
鳢 1
鳥 1
鳩 1
鳳 1
鳴 1
鳶 1
鴇 1
鴉 1
鴎 1
鴛 1
鴞 1
鴦 1
鴨 1
鴻 1
鴿 1
鵑 1
鵙 1
鵜 1
鵝 1
鵠 1
鵡 1
鵬 1
鵰 1
鵲 1
鶇 1
鶉 1
鶏 1
鶥 1
鶯 1
鶴 1
鶻 1
鷗 1
鷲 1
鷹 1
鷺 1
鸚 1
鸞 1
鸟 1
鸠 1
鸡 1
鸢 1
鸣 1
鸥 1
鸦 1
鸫 1
鸭 1
鸮 1
鸯 1
鸳 1
鸽 1
鸾 1
鸿 1
鹃 1
鹅 1
鹈 1
鹉 1
鹊 1
鹏 1
鹘 1
鹛 1
鹤 1
鹦 1
鹫 1
鹭 1
鹰 1
鹵 1
鹸 1
鹹 1
鹼 1
鹽 1
鹿 1
麋 1
麒 1
麓 1
麗 1
麝 1
麟 1
麤 1
麥 1
麦 1
麴 1
麵 1
麹 1
麺 1
麻 1
麼 1
麽 1
麾 1
麿 1
黃 1
黄 1
黍 1
黎 1
黏 1
黑 1
黒 1
黔 1
默 1
黙 1
黛 1
黜 1
點 1
黨 1
黯 1
黴 1
黻 1
鼎 1
鼐 1
鼓 1
鼠 1
鼩 1
鼬 1
鼻 1
齊 1
齋 1
齐 1
齒 1
齡 1
齢 1
齣 1
齦 1
齧 1
齿 1
龄 1
龈 1
龍 1
龐 1
龔 1
龕 1
龙 1
龚 1
龛 1
龜 1
龟 1
龢 1
가 1
각 1
간 1
갇 1
갈 1
감 1
갑 1
값 1
갓 1
갔 1
강 1
갖 1
같 1
갚 1
개 1
객 1
갤 1
갯 1
갱 1
걀 1
거 1
걱 1
건 1
걷 1
걸 1
검 1
겁 1
것 1
겉 1
게 1
겐 1
겔 1
겟 1
겠 1
겨 1
격 1
겪 1
견 1
결 1
겸 1
겹 1
겼 1
경 1
곁 1
계 1
고 1
곡 1
곤 1
곧 1
골 1
곰 1
곱 1
곳 1
공 1
곶 1
과 1
곽 1
관 1
괄 1
괌 1
광 1
괜 1
괴 1
굉 1
교 1
구 1
국 1
군 1
굳 1
굴 1
굵 1
굽 1
굿 1
궁 1
권 1
궐 1
궤 1
귀 1
귄 1
규 1
균 1
그 1
극 1
근 1
글 1
금 1
급 1
긋 1
긍 1
기 1
긴 1
길 1
김 1
깁 1
깃 1
깊 1
까 1
깎 1
깐 1
깔 1
깜 1
깝 1
깥 1
깨 1
꺼 1
꺾 1
껍 1
껏 1
께 1
껴 1
꼈 1
꼬 1
꼭 1
꼴 1
꼼 1
꼽 1
꽃 1
꽤 1
꾀 1
꾸 1
꾼 1
꿀 1
꿈 1
꿔 1
꿨 1
뀌 1
뀐 1
끄 1
끈 1
끊 1
끌 1
끓 1
끔 1
끗 1
끝 1
끼 1
낀 1
낄 1
낌 1
나 1
낙 1
난 1
날 1
낡 1
남 1
납 1
낫 1
났 1
낭 1
낮 1
낯 1
낱 1
낳 1
내 1
낸 1
낼 1
냄 1
냈 1
냉 1
냐 1
냥 1
너 1
넌 1
널 1
넓 1
넘 1
넛 1
넣 1
네 1
넥 1
넨 1
넬 1
넷 1
녀 1
녁 1
년 1
념 1
녔 1
녕 1
노 1
녹 1
논 1
놀 1
놈 1
농 1
높 1
놓 1
뇌 1
뇨 1
누 1
눅 1
눈 1
눌 1
눠 1
뉘 1
뉜 1
뉴 1
늄 1
느 1
늑 1
는 1
늘 1
늙 1
능 1
늦 1
늬 1
니 1
닉 1
닌 1
닐 1
님 1
닛 1
닝 1
다 1
닥 1
닦 1
단 1
닫 1
달 1
닭 1
닮 1
담 1
답 1
닷 1
당 1
닿 1
대 1
댄 1
댈 1
댐 1
댓 1
더 1
덕 1
던 1
덜 1
덟 1
덤 1
덧 1
덩 1
덮 1
데 1
덱 1
덴 1
델 1
도 1
독 1
돈 1
돋 1
돌 1
돔 1
돕 1
돗 1
동 1
돼 1
됐 1
되 1
된 1
될 1
됨 1
두 1
둑 1
둔 1
둘 1
둠 1
둥 1
뒀 1
뒤 1
뒷 1
듀 1
듈 1
드 1
득 1
든 1
듣 1
들 1
듬 1
듭 1
듯 1
등 1
디 1
딕 1
딘 1
딜 1
딥 1
딧 1
딩 1
딪 1
따 1
딱 1
딴 1
딸 1
땃 1
땄 1
땅 1
때 1
떠 1
떡 1
떤 1
떨 1
떻 1
떼 1
또 1
똑 1
뚜 1
뚝 1
뚫 1
뚱 1
뛰 1
뜨 1
뜬 1
뜻 1
띄 1
띠 1
띤 1
라 1
락 1
란 1
랄 1
람 1
랍 1
랐 1
랑 1
래 1
랙 1
랜 1
램 1
랩 1
랫 1
랬 1
랭 1
랴 1
략 1
량 1
러 1
럭 1
런 1
럴 1
럼 1
럽 1
럿 1
렀 1
렁 1
렇 1
레 1
렉 1
렌 1
렐 1
렘 1
렛 1
려 1
력 1
련 1
렬 1
렴 1
렵 1
렷 1
렸 1
령 1
례 1
로 1
록 1
론 1
롤 1
롬 1
롭 1
롯 1
롱 1
뢰 1
료 1
룡 1
루 1
룩 1
룬 1
룰 1
룸 1
룹 1
룻 1
룽 1
뤄 1
뤘 1
뤼 1
류 1
륙 1
륜 1
률 1
륨 1
륭 1
르 1
륵 1
른 1
를 1
름 1
릇 1
릉 1
릎 1
리 1
릭 1
린 1
릴 1
림 1
립 1
릿 1
링 1
마 1
막 1
만 1
많 1
맏 1
말 1
맑 1
맘 1
맛 1
망 1
맞 1
맡 1
매 1
맥 1
맨 1
맵 1
맷 1
맹 1
맺 1
머 1
먹 1
먼 1
멀 1
멈 1
멋 1
멍 1
메 1
멕 1
멘 1
멜 1
멤 1
멧 1
며 1
면 1
멸 1
명 1
몇 1
모 1
목 1
몫 1
몬 1
몰 1
몸 1
몹 1
못 1
몽 1
뫼 1
묘 1
무 1
묵 1
묶 1
문 1
묻 1
물 1
뭄 1
뭇 1
뭉 1
뭐 1
뭔 1
뮌 1
뮤 1
뮬 1
므 1
미 1
믹 1
민 1
믿 1
밀 1
밋 1
밍 1
및 1
밑 1
바 1
박 1
밖 1
반 1
받 1
발 1
밝 1
밟 1
밤 1
밥 1
방 1
밭 1
배 1
백 1
밴 1
밸 1
뱀 1
뱅 1
버 1
벅 1
번 1
벌 1
범 1
법 1
벗 1
벚 1
베 1
벡 1
벤 1
벨 1
벳 1
벵 1
벼 1
벽 1
변 1
별 1
볍 1
병 1
보 1
복 1
본 1
볼 1
봄 1
봇 1
봉 1
봐 1
봤 1
부 1
북 1
분 1
불 1
붉 1
붐 1
붓 1
붕 1
붙 1
뷔 1
뷰 1
브 1
븐 1
블 1
비 1
빅 1
빈 1
빌 1
빔 1
빗 1
빙 1
빚 1
빛 1
빠 1
빨 1
빵 1
빼 1
빽 1
뻐 1
뻔 1
뻗 1
뼈 1
뽑 1
뾰 1
뿌 1
뿐 1
뿔 1
쁘 1
쁜 1
쁨 1
사 1
삭 1
산 1
살 1
삶 1
삼 1
삽 1
삿 1
샀 1
상 1
새 1
색 1
샌 1
샐 1
샘 1
생 1
샤 1
샬 1
샹 1
섀 1
서 1
석 1
섞 1
선 1
설 1
섬 1
섭 1
섯 1
섰 1
성 1
세 1
섹 1
센 1
셀 1
셈 1
셉 1
셋 1
셔 1
션 1
셜 1
셨 1
셰 1
셸 1
소 1
속 1
손 1
솔 1
솜 1
솟 1
송 1
쇄 1
쇠 1
쇼 1
숀 1
숍 1
수 1
숙 1
순 1
술 1
숨 1
숫 1
숭 1
숲 1
쉐 1
쉬 1
쉴 1
쉽 1
슈 1
슌 1
슐 1
슘 1
슛 1
스 1
슨 1
슬 1
슭 1
슴 1
습 1
슷 1
승 1
시 1
식 1
신 1
싣 1
실 1
싫 1
심 1
십 1
싯 1
싱 1
싶 1
싸 1
싹 1
싼 1
쌀 1
쌍 1
쌓 1
써 1
썩 1
썬 1
썰 1
썼 1
쏘 1
쏜 1
쏟 1
쑤 1
쓰 1
쓴 1
쓸 1
씀 1
씌 1
씨 1
씩 1
씬 1
아 1
악 1
안 1
앉 1
않 1
알 1
앓 1
암 1
압 1
앗 1
았 1
앙 1
앞 1
애 1
액 1
앤 1
앨 1
앱 1
앵 1
야 1
약 1
얀 1
얄 1
얇 1
양 1
얕 1
얘 1
어 1
억 1
언 1
얹 1
얻 1
얼 1
얽 1
엄 1
업 1
없 1
엇 1
었 1
엉 1
에 1
엑 1
엔 1
엘 1
엠 1
엣 1
여 1
역 1
엮 1
연 1
열 1
염 1
엽 1
엿 1
였 1
영 1
옆 1
예 1
옌 1
옐 1
옛 1
오 1
옥 1
온 1
올 1
옮 1
옳 1
옴 1
옵 1
옷 1
옹 1
와 1
완 1
왈 1
왓 1
왔 1
왕 1
왜 1
외 1
왼 1
요 1
욕 1
욘 1
욤 1
용 1
우 1
욱 1
운 1
울 1
움 1
웃 1
웅 1
워 1
원 1
월 1
웠 1
웨 1
웬 1
웰 1
웹 1
위 1
윅 1
윈 1
윌 1
윗 1
윙 1
유 1
육 1
윤 1
율 1
융 1
으 1
윽 1
은 1
을 1
음 1
읍 1
응 1
의 1
이 1
익 1
인 1
일 1
읽 1
잃 1
임 1
입 1
잇 1
있 1
잉 1
잊 1
잎 1
자 1
작 1
잔 1
잘 1
잠 1
잡 1
장 1
잦 1
재 1
잭 1
쟁 1
쟈 1
저 1
적 1
전 1
절 1
젊 1
점 1
접 1
정 1
젖 1
제 1
젝 1
젠 1
젤 1
져 1
졌 1
조 1
족 1
존 1
졸 1
좀 1
좁 1
종 1
좋 1
좌 1
죄 1
죠 1
주 1
죽 1
준 1
줄 1
줌 1
중 1
줘 1
줬 1
쥐 1
쥬 1
쥰 1
즈 1
즉 1
즌 1
즐 1
즘 1
증 1
지 1
직 1
진 1
질 1
짐 1
집 1
짓 1
징 1
짙 1
짜 1
짝 1
짧 1
짱 1
째 1
쩌 1
쩔 1
쪽 1
쫓 1
쭉 1
쯔 1
쯤 1
찌 1
찍 1
찔 1
차 1
착 1
찬 1
찮 1
찰 1
참 1
창 1
찾 1
채 1
책 1
챈 1
챌 1
챔 1
챙 1
처 1
척 1
천 1
철 1
첨 1
첩 1
첫 1
청 1
체 1
첸 1
첼 1
쳐 1
쳤 1
초 1
촉 1
촌 1
촛 1
총 1
촨 1
촬 1
최 1
추 1
축 1
춘 1
출 1
춤 1
충 1
춰 1
췌 1
취 1
츄 1
츠 1
측 1
츰 1
층 1
치 1
칙 1
친 1
칠 1
침 1
칩 1
칭 1
카 1
칸 1
칼 1
캄 1
캅 1
캉 1
캐 1
캔 1
캘 1
캠 1
캡 1
캣 1
커 1
컨 1
컫 1
컬 1
컴 1
컵 1
컷 1
컸 1
케 1
켄 1
켈 1
켓 1
켜 1
켰 1
코 1
콕 1
콘 1
콜 1
콤 1
콥 1
콧 1
콩 1
콰 1
쾌 1
쾰 1
쿄 1
쿠 1
쿡 1
쿤 1
쿨 1
쿼 1
퀘 1
퀴 1
퀸 1
큐 1
큘 1
크 1
큰 1
클 1
큼 1
키 1
킥 1
킨 1
킬 1
킴 1
킷 1
킹 1
타 1
탁 1
탄 1
탈 1
탐 1
탑 1
탓 1
탔 1
탕 1
태 1
택 1
탠 1
탤 1
탬 1
탭 1
탱 1
터 1
턱 1
턴 1
털 1
텀 1
테 1
텍 1
텐 1
텔 1
템 1
텝 1
톈 1
토 1
톡 1
톤 1
톨 1
톰 1
톱 1
통 1
퇴 1
투 1
툰 1
툴 1
툼 1
퉁 1
튀 1
튜 1
튠 1
튬 1
트 1
특 1
튼 1
틀 1
틈 1
티 1
틱 1
틴 1
틸 1
팀 1
팅 1
파 1
팍 1
판 1
팔 1
팜 1
팝 1
팟 1
팡 1
패 1
팩 1
팬 1
팽 1
퍼 1
펀 1
펄 1
펌 1
펑 1
페 1
펙 1
펜 1
펠 1
펫 1
펴 1
편 1
펼 1
평 1
폐 1
포 1
폭 1
폰 1
폴 1
폼 1
퐁 1
표 1
푸 1
푼 1
풀 1
품 1
풋 1
풍 1
퓨 1
프 1
픈 1
플 1
픔 1
피 1
픽 1
핀 1
필 1
핍 1
핑 1
하 1
학 1
한 1
할 1
함 1
합 1
핫 1
항 1
해 1
핵 1
핸 1
햄 1
햇 1
했 1
행 1
향 1
허 1
헌 1
헐 1
험 1
헝 1
헤 1
헨 1
헬 1
혀 1
혁 1
현 1
혈 1
혐 1
협 1
혔 1
형 1
혜 1
호 1
혹 1
혼 1
홀 1
홈 1
홉 1
홋 1
홍 1
화 1
확 1
환 1
활 1
황 1
회 1
획 1
횟 1
횡 1
효 1
후 1
훈 1
훌 1
훔 1
훗 1
훨 1
훼 1
휘 1
휠 1
휩 1
휴 1
흉 1
흐 1
흑 1
흔 1
흘 1
흙 1
흡 1
흥 1
흩 1
희 1
흰 1
히 1
힌 1
힐 1
힘 1
힙 1
﨑 1
ﮐ 1
ﮟ 1
ﮨ 1
ﮯ 1
ﯽ 1
ﯿ 1
﴾ 1
﴿ 1
ﷲ 1
ﷺ 1
︰ 1
﹐ 1
﹑ 1
﹔ 1
﹕ 1
﹝ 1
﹞ 1
﹣ 1
ﺍ 1
ﺎ 1
ﺗ 1
ﻣ 1
ﻭ 1
ﻮ 1
！ 1
＂ 1
＃ 1
％ 1
＆ 1
（ 1
） 1
＊ 1
＋ 1
， 1
－ 1
． 1
／ 1
０ 1
１ 1
２ 1
３ 1
４ 1
５ 1
６ 1
７ 1
８ 1
９ 1
： 1
； 1
＜ 1
＝ 1
＞ 1
？ 1
＠ 1
Ａ 1
Ｂ 1
Ｃ 1
Ｍ 1
Ｓ 1
Ｘ 1
［ 1
＼ 1
］ 1
＿ 1
｜ 1
～ 1
｡ 1
｢ 1
｣ 1
､ 1
･ 1
𩽾 1
𩾌 1
de 1
the 1
in 1
##s 1
of 1
la 1
en 1
and 1
##e 1
##a 1
to 1
##n 1
##i 1
The 1
der 1
un 1
di 1
que 1
на 1
##t 1
is 1
el 1
se 1
del 1
die 1
##r 1
und 1
et 1
na 1
##o 1
was 1
on 1
##en 1
är 1
##u 1
des 1
den 1
le 1
for 1
da 1
je 1
van 1
as 1
##m 1
sa 1
do 1
10 1
an 1
les 1
una 1
il 1
by 1
og 1
##y 1
2011 1
La 1
at 1
##l 1
##d 1
er 1
al 1
##er 1
von 1
In 1
du 1
with 1
av 1
##es 1
med 1
con 1
##k 1
2010 1
est 1
och 1
per 1
##а 1
2000 1
som 1
los 1
por 1
nga 1
2012 1
12 1
het 1
from 1
that 1
De 1
##и 1
no 1
11 1
2014 1
2009 1
es 1
20 1
su 1
ISBN 1
een 1
ja 1
2007 1
2008 1
km 1
##е 1
##an 1
2013 1
15 1
om 1
في 1
im 1
com 1
##ta 1
2006 1
dan 1
##te 1
på 1
18 1
##na 1
para 1
mit 1
2015 1
als 1
El 1
como 1
his 1
##у 1
ha 1
##da 1
##ing 1
une 1
... 1
24 1
за 1
Den 1
Die 1
##h 1
##ne 1
در 1
##g 1
##м 1
das 1
En 1
30 1
##in 1
##re 1
14 1
par 1
13 1
16 1
##us 1
2005 1
##de 1
је 1
2016 1
és 1
au 1
25 1
000 1
dans 1
he 1
che 1
##on 1
2004 1
yang 1
em 1
##н 1
dem 1
##ch 1
19 1
it 1
2001 1
17 1
°C 1
til 1
2002 1
се 1
##ی 1
han 1
##ia 1
Le 1
Il 1
wurde 1
##le 1
las 1
della 1
New 1
##ra 1
من 1
ein 1
##is 1
##ы 1
um 1
si 1
2003 1
21 1
по 1
ist 1
var 1
Species 1
are 1
2017 1
op 1
zu 1
##z 1
22 1
für 1
##et 1
were 1
##os 1
od 1
son 1
An 1
26 1
World 1
##о 1
##do 1
של 1
which 1
##ja 1
va 1
pour 1
ve 1
1999 1
##ti 1
sur 1
به 1
23 1
auf 1
##la 1
là 1
от 1
##é 1
года 1
II 1
##ed 1
Life 1
war 1
za 1
##to 1
##se 1
##ni 1
##no 1
до 1
or 1
nel 1
be 1
28 1
det 1
##c 1
##т 1
##і 1
##х 1
##ar 1
qui 1
του 1
He 1
και 1
eine 1
az 1
te 1
##va 1
1998 1
##ом 1
27 1
mm 1
##та 1
##nt 1
##ma 1
finns 1
##ka 1
sich 1
Catalogue 1
had 1
не 1
##ng 1
It 1
în 1
also 1
so 1
##je 1
##ة 1
از 1
##й 1
##я 1
29 1
из 1
##ه 1
1996 1
##li 1
1997 1
am 1
has 1
km² 1
roku 1
și 1
dari 1
dos 1
ur 1
##ie 1
##ri 1
entre 1
##as 1
University 1
да 1
lo 1
100 1
eta 1
##на 1
##p 1
era 1
के 1
31 1
ni 1
##al 1
##ה 1
một 1
##j 1
##ce 1
1990 1
John 1
first 1
voor 1
się 1
##ca 1
##ment 1
os 1
met 1
##ا 1
од 1
ou 1
và 1
##ов 1
2018 1
all 1
1995 1
uma 1
##ים 1
во 1
##ko 1
aus 1
1991 1
##ó 1
1994 1
Der 1
non 1
của 1
foi 1
##si 1
1992 1
##em 1
af 1
har 1
##ly 1
their 1
ar 1
##b 1
film 1
##의 1
avec 1
##ي 1
50 1
1993 1
one 1
##um 1
##sa 1
bis 1
Les 1
San 1
της 1
##ă 1
not 1
but 1
its 1
та 1
được 1
##v 1
ir 1
who 1
ny 1
##ו 1
York 1
##ga 1
##ς 1
her 1
##it 1
το 1
ang 1
månaden 1
Mexico 1
over 1
bei 1
ser 1
www 1
году 1
nach 1
した 1
که 1
dei 1
##mi 1
##ת 1
##ت 1
trakten 1
trong 1
nederbörd 1
##ki 1
את 1
##ми 1
ligger 1
##к 1
të 1
alla 1
##с 1
po 1
auch 1
History 1
##л 1
yn 1
##р 1
для 1
##ка 1
door 1
UK 1
1989 1
##ge 1
##at 1
dat 1
runt 1
have 1
##에 1
this 1
में 1
40 1
##י 1
##ية 1
American 1
##ba 1
1980 1
ed 1
uit 1
##в 1
species 1
más 1
från 1
##í 1
##ur 1
este 1
1988 1
ya 1
##ke 1
two 1
parte 1
fue 1
ne 1
Checklist 1
http 1
Ang 1
năm 1
amb 1
على 1
bir 1
##st 1
plus 1
##ات 1
ITIS 1
است 1
##ro 1
Press 1
है 1
##el 1
under 1
על 1
する 1
zijn 1
##f 1
On 1
##ות 1
1986 1
werd 1
zum 1
1987 1
##ن 1
1985 1
978 1
pada 1
meter 1
су 1
men 1
##man 1
been 1
dell 1
ini 1
##ю 1
familia 1
din 1
September 1
1984 1
##ci 1
einer 1
Orrell 1
có 1
Saint 1
sua 1
##ul 1
##ndo 1
album 1
1970 1
qu 1
United 1
ao 1
##mente 1
##ve 1
över 1
mais 1
werden 1
Annual 1
seu 1
Panoramas 1
Viewfinder 1
genus 1
##ą 1
##을 1
september 1
Kirk 1
##ся 1
oli 1
##me 1
fra 1
Reading 1
Los 1
Michael 1
sie 1
##den 1
##の 1
time 1
##но 1
##za 1
##io 1
Bourgoin 1
NASA 1
این 1
1982 1
1983 1
##ów 1
Bailly 1
ngan 1
sont 1
##ки 1
την 1
Roskov 1
Baillargeon 1
III 1
Paglinawan 1
1981 1
National 1
##ни 1
No 1
##د 1
dengan 1
DEM 1
##á 1
after 1
dalam 1
ett 1
1975 1
Det 1
##or 1
part 1
01 1
1945 1
dia 1
Das 1
##ر 1
##ла 1
1979 1
##nya 1
1972 1
come 1
##ya 1
red 1
##ten 1
ingår 1
els 1
other 1
Na 1
##x 1
në 1
France 1
they 1
sobre 1
کے 1
##om 1
1978 1
William 1
##не 1
##те 1
tot 1
1968 1
1960 1
##م 1
jako 1
был 1
##di 1
delen 1
1976 1
##kan 1
##ek 1
into 1
60 1
##ak 1
və 1
till 1
##ı 1
durch 1
##lo 1
##ung 1
року 1
ble 1
06 1
από 1
##ів 1
1977 1
1974 1
1973 1
May 1
nicht 1
aan 1
Paris 1
##2 1
ka 1
##S 1
1971 1
org 1
Mer 1
August 1
zur 1
mai 1
##A 1
##이 1
dal 1
up 1
##ها 1
ng 1
här 1
einem 1
##д 1
This 1
را 1
nahilalakip 1
då 1
new 1
##то 1
थ्व 1
aux 1
Ginkuhà 1
##ny 1
500 1
##ho 1
##1 1
oder 1
##ju 1
sind 1
landet 1
1969 1
##ان 1
Jean 1
algoritmen 1
Användare 1
Algoritmer 1
Lsjbot 1
International 1
Paul 1
City 1
##lar 1
##ji 1
höjduppgifter 1
200 1
На 1
км 1
April 1
με 1
untuk 1
##ли 1
adalah 1
hij 1
uska 1
ziren 1
att 1
này 1
wird 1
что 1
các 1
iz 1
ce 1
sin 1
Im 1
##go 1
more 1
nan 1
1967 1
pas 1
havet 1
35 1
David 1
ei 1
##ts 1
nella 1
US 1
hini 1
##ción 1
1950 1
##co 1
TV 1
04 1
##ler 1
##à 1
man 1
Han 1
November 1
Robert 1
Nicolson 1
##tion 1
##г 1
ma 1
1944 1
की 1
45 1
1962 1
London 1
lui 1
05 1
80 1
she 1
dels 1
##ir 1
##ía 1
delle 1
St 1
1965 1
ad 1
when 1
32 1
65 1
##ų 1
été 1
sus 1
för 1
über 1
subspecies 1
due 1
##ь 1
##ва 1
##ku 1
cu 1
years 1
1964 1
1966 1
##C 1
States 1
familjen 1
ہے 1
fan 1
إلى 1
що 1
NGC 1
Ouvrard 1
Het 1
са 1
Bisby 1
##ze 1
და 1
ginhulagway 1
later 1
##w 1
1961 1
họ 1
##ter 1
07 1
ki 1
или 1
1941 1
As 1
Al 1
##3 1
##ë 1
County 1
Waray 1
1940 1
huvudstaden 1
nakalista 1
##ns 1
##은 1
only 1
would 1
1939 1
##ik 1
einen 1
##が 1
più 1
James 1
##ers 1
godine 1
Framräknat 1
1963 1
kan 1
から 1
03 1
##ry 1
با 1
januari 1
me 1
Es 1
при 1
##ी 1
Er 1
میں 1
##sen 1
##های 1
90 1
##des 1
##ha 1
##ção 1
70 1
year 1
Charles 1
släktet 1
##ban 1
##ен 1
##0 1
blev 1
pa 1
##ם 1
его 1
varmaste 1
Årsmedeltemperaturen 1
kallaste 1
beskrevs 1
medeltemperaturen 1
during 1
where 1
ze 1
eller 1
##rs 1
can 1
loài 1
underarter 1
1958 1
between 1
как 1
out 1
Bronnen 1
された 1
wie 1
##년 1
George 1
со 1
him 1
Inga 1
sono 1
##ти 1
##ل 1
millimeter 1
##ę 1
noten 1
##ben 1
juli 1
referenties 1
alle 1
##ren 1
##ных 1
##ը 1
##sta 1
jest 1
ses 1
1956 1
##rt 1
और 1
about 1
Peter 1
1959 1
listade 1
నుండి 1
02 1
School 1
vun 1
comme 1
##да 1
1943 1
tahun 1
##го 1
##tu 1
most 1
##ма 1
genomsnitt 1
wurden 1
torraste 1
årsnederbörd 1
Genomsnittlig 1
regnigaste 1
33 1
године 1
##ן 1
three 1
1948 1
fu 1
##ů 1
invånare 1
##am 1
kvadratkilometer 1
##ou 1
##4 1
Earth 1
##ä 1
anche 1
ben 1
##от 1
1942 1
##는 1
made 1
англ 1
##ria 1
కి 1
ye 1
##ov 1
00 1
1957 1
người 1
1930 1
1920 1
##il 1
used 1
1954 1
##mo 1
dhe 1
09 1
vom 1
##wa 1
Un 1
##jo 1
sebagai 1
forma 1
##és 1
##ica 1
##be 1
Se 1
##ion 1
durante 1
przez 1
such 1
##ного 1
deux 1
08 1
known 1
ved 1
36 1
South 1
ta 1
nie 1
then 1
он 1
USA 1
##ken 1
1946 1
dass 1
You 1
Maria 1
##ina 1
να 1
34 1
final 1
1955 1
से 1
である 1
League 1
##ной 1
کی 1
population 1
##п 1
##ра 1
##land 1
का 1
1938 1
##lla 1
than 1
nu 1
##ب 1
1953 1
##ine 1
naam 1
##T 1
##س 1
##ный 1
300 1
IV 1
1949 1
Thomas 1
1918 1
India 1
τον 1
1952 1
All 1
##한 1
הוא 1
State 1
merupakan 1
##ской 1
##un 1
##ні 1
Oxford 1
familie 1
club 1
July 1
1947 1
یک 1
##zione 1
més 1
elle 1
Richard 1
##che 1
June 1
team 1
Az 1
1936 1
unter 1
học 1
44 1
##P 1
##র 1
##ner 1
##ic 1
care 1
second 1
##ł 1
zen 1
ca 1
mga 1
Nel 1
として 1
Retrieved 1
##ok 1
від 1
##ig 1
##th 1
March 1
##و 1
inom 1
##nu 1
##ш 1
She 1
που 1
には 1
some 1
##ada 1
Santa 1
there 1
oleh 1
##ste 1
GeoNames 1
##ut 1
British 1
pe 1
Film 1
ke 1
West 1
data 1
##5 1
gli 1
area 1
##án 1
co 1
38 1
һәм 1
1937 1
##ció 1
born 1
400 1
kao 1
any 1
became 1
των 1
##dos 1
với 1
##ton 1
##ского 1
serie 1
एक 1
ook 1
છે 1
##que 1
vor 1
##ку 1
place 1
Berlin 1
##ные 1
##ty 1
soort 1
##tes 1
including 1
##ে 1
1951 1
đầu 1
pod 1
##ble 1
37 1
##das 1
well 1
cm 1
##ा 1
##ר 1
##gi 1
##6 1
October 1
đã 1
##ի 1
egy 1
##nen 1
##ն 1
Jahr 1
koji 1
General 1
oraz 1
through 1
being 1
##ní 1
North 1
season 1
##nte 1
waren 1
година 1
noch 1
##ll 1
doi 1
##ea 1
##res 1
Martin 1
##ant 1
hadton 1
January 1
Park 1
##ан 1
eerst 1
##ہ 1
##ò 1
##vo 1
##ée 1
##né 1
1933 1
Love 1
##id 1
hat 1
ఉన్నాయి 1
ko 1
##ssa 1
database 1
Po 1
Society 1
cho 1
##ть 1
##E 1
են 1
##로 1
στην 1
##ck 1
tra 1
fost 1
pero 1
को 1
##les 1
##ning 1
##lle 1
1935 1
##ado 1
##R 1
##B 1
##ske 1
42 1
War 1
años 1
но 1
##gen 1
##I 1
##zi 1
1934 1
pro 1
سال 1
1919 1
##가 1
December 1
Em 1
##ot 1
##ל 1
##ой 1
##ist 1
##ين 1
64 1
bij 1
##nie 1
##ista 1
many 1
48 1
After 1
sebuah 1
39 1
##der 1
##7 1
1914 1
##ны 1
nord 1
pp 1
##vi 1
Database 1
##に 1
Europa 1
మీ 1
suo 1
Club 1
Music 1
radie 1
Grand 1
では 1
##ს 1
ci 1
де 1
name 1
Museum 1
##ون 1
against 1
prima 1
fait 1
آن 1
volt 1
その 1
1932 1
Louis 1
##nia 1
1929 1
will 1
σε 1
total 1
One 1
أن 1
bi 1
Man 1
1928 1
them 1
ai 1
##га 1
##berg 1
41 1
як 1
για 1
hogy 1
dalla 1
nur 1
##pe 1
world 1
ab 1
55 1
##pa 1
before 1
στο 1
amin 1
اور 1
original 1
family 1
series 1
won 1
1917 1
##L 1
43 1
while 1
ale 1
##9 1
ఉంది 1
José 1
single 1
##を 1
ont 1
Joseph 1
commune 1
uno 1
##nde 1
1931 1
##ў 1
cui 1
##ский 1
may 1
state 1
general 1
##tas 1
Records 1
desde 1
school 1
sous 1
solo 1
##8 1
Art 1
byl 1
For 1
år 1
##ski 1
juni 1
##O 1
base 1
##ent 1
via 1
nom 1
both 1
roce 1
hasta 1
seiner 1
stato 1
47 1
עם 1
sowie 1
1924 1
75 1
##men 1
ex 1
não 1
##ের 1
naar 1
##ית 1
work 1
worden 1
people 1
және 1
gepubliceerd 1
под 1
Encyclopedia 1
области 1
gran 1
wetenschappelijke 1
##ски 1
##lu 1
local 1
عام 1
mars 1
grande 1
America 1
Lake 1
1927 1
også 1
until 1
##ky 1
##ger 1
##G 1
также 1
##ão 1
была 1
##ý 1
geldig 1
##न 1
College 1
становника 1
##ца 1
Union 1
గ్రామం 1
Ny 1
##du 1
1922 1
##cia 1
1925 1
cette 1
##ura 1
1921 1
##으로 1
zeuden 1
To 1
Trakten 1
wa 1
1926 1
contra 1
Van 1
році 1
είναι 1
##ii 1
##sk 1
sein 1
По 1
##ol 1
##ón 1
##ā 1
##ć 1
##ska 1
history 1
number 1
##ad 1
##에서 1
##D 1
nombre 1
##них 1
seine 1
Jahre 1
го 1
##nes 1
##ों 1
##mento 1
bu 1
Am 1
primer 1
##ия 1
کا 1
esta 1
Nach 1
있다 1
1912 1
February 1
##ز 1
##లో 1
##ї 1
System 1
##를 1
Award 1
King 1
anni 1
##M 1
Las 1
bat 1
hi 1
1923 1
mö 1
partir 1
51 1
52 1
Nacional 1
##tt 1
46 1
FC 1
##by 1
sem 1
##ний 1
##lt 1
##nd 1
juga 1
кӀоштан 1
##N 1
ay 1
released 1
##ien 1
దూరంలో 1
##ai 1
Elle 1
Cup 1
House 1
sig 1
provinsen 1
##ная 1
##र 1
##ий 1
bagian 1
called 1
played 1
##े 1
Italia 1
Кхузахь 1
##ке 1
nem 1
está 1
seus 1
same 1
##ə 1
stanovnika 1
también 1
##F 1
aber 1
##ст 1
1900 1
hatte 1
band 1
##з 1
end 1
nos 1
している 1
River 1
ду 1
##ა 1
råder 1
##он 1
49 1
asteroid 1
было 1
Sie 1
city 1
1910 1
Washington 1
##ach 1
##は 1
Me 1
My 1
##are 1
して 1
China 1
même 1
Tour 1
Royal 1
His 1
four 1
##son 1
ing 1
Henry 1
##ло 1
vào 1
ile 1
##ert 1
1913 1
village 1
##len 1
Pierre 1
based 1
##ischen 1
Dr 1
##ет 1
li 1
zwei 1
English 1
tre 1
vid 1
Italy 1
##ron 1
California 1
##ita 1
##ко 1
##ies 1
ಮತ್ತು 1
##ش 1
##ire 1
56 1
thành 1
##ian 1
##ana 1
tả 1
nome 1
số 1
Canada 1
##ě 1
##ú 1
ikke 1
re 1
##cht 1
Red 1
tháng 1
##he 1
était 1
##bi 1
CD 1
были 1
##ում 1
IC 1
został 1
namngivna 1
principal 1
54 1
Routledge 1
eines 1
wordt 1
время 1
Indonesia 1
kilometer 1
sud 1
game 1
##と 1
то 1
##고 1
degli 1
##lich 1
Italian 1
##ン 1
##so 1
niet 1
anno 1
##ische 1
Smith 1
version 1
vez 1
##ks 1
après 1
ug 1
##ud 1
##ru 1
tres 1
1915 1
public 1
être 1
khoa 1
Juan 1
##ف 1
närheten 1
سے 1
dit 1
december 1
##ным 1
##ع 1
Loài 1
long 1
They 1
Cambridge 1
τα 1
At 1
že 1
England 1
التي 1
##q 1
Air 1
##au 1
izd 1
коды 1
sistema 1
##ier 1
##cy 1
##ک 1
За 1
што 1
##ल 1
nun 1
हैं 1
##mu 1
##ник 1
Center 1
واقع 1
BBC 1
اس 1
There 1
vuonna 1
november 1
##ida 1
Madrid 1
Runt 1
Australia 1
Best 1
sau 1
early 1
##K 1
año 1
ut 1
several 1
##ন 1
1911 1
Company 1
Don 1
Si 1
##ей 1
ville 1
ans 1
enligt 1
##ч 1
##ls 1
pentru 1
عن 1
Black 1
Association 1
##ну 1
olan 1
atau 1
không 1
53 1
Christian 1
dont 1
##im 1
use 1
84 1
these 1
Hall 1
since 1
nog 1
150 1
Europe 1
Hans 1
ten 1
ਹੈ 1
Festival 1
olarak 1
land 1
##கள் 1
former 1
högsta 1
##ри 1
##ini 1
##V 1
UTC 1
##han 1
cada 1
go 1
Mai 1
1916 1
seva 1
system 1
zwischen 1
guerra 1
##bo 1
Do 1
Daniel 1
pela 1
Roma 1
group 1
600 1
مع 1
Francisco 1
τη 1
بن 1
ਦੇ 1
##nin 1
wat 1
regia 1
##му 1
Jan 1
leur 1
oktober 1
##ation 1
maar 1
tiên 1
1905 1
##tor 1
où 1
же 1
home 1
57 1
Da 1
1908 1
дар 1
##dae 1
##ciones 1
found 1
58 1
station 1
fin 1
##ius 1
##ס 1
Census 1
East 1
この 1
##ى 1
##сь 1
Marie 1
برای 1
Star 1
augusti 1
një 1
music 1
từ 1
post 1
donde 1
أو 1
national 1
##त 1
high 1
set 1
Island 1
##dor 1
like 1
##ле 1
##ق 1
1907 1
दु 1
##ux 1
mas 1
##vat 1
now 1
ra 1
punkten 1
##nda 1
Karl 1
##lik 1
Jahren 1
##idae 1
بعد 1
59 1
tidak 1
myös 1
##اً 1
fut 1
Frank 1
Antonio 1
april 1
dopo 1
primera 1
##iu 1
Stadt 1
شد 1
##ker 1
Insecta 1
##과 1
τους 1
##ار 1
Central 1
##ė 1
ga 1
nei 1
##ang 1
##ды 1
Japan 1
بود 1
##ון 1
French 1
kg 1
XIX 1
show 1
off 1
##ок 1
800 1
following 1
Estados 1
##다 1
pelo 1
##ии 1
dieser 1
##ige 1
##ua 1
##chen 1
itu 1
##ico 1
##ted 1
premier 1
European 1
ban 1
Bu 1
هو 1
##ice 1
Open 1
site 1
после 1
major 1
Observations 1
##hi 1
##이다 1
vida 1
adolah 1
Band 1
Journal 1
gegen 1
februari 1
1906 1
##ları 1
những 1
vật 1
Od 1
また 1
art 1
1904 1
day 1
began 1
##ive 1
century 1
1909 1
##ling 1
În 1
był 1
each 1
##ity 1
##ej 1
we 1
##ata 1
telah 1
located 1
було 1
High 1
##dir 1
District 1
ili 1
hän 1
também 1
Street 1
село 1
##sti 1
estado 1
Als 1
Oktober 1
Unidos 1
##át 1
havia 1
quando 1
##gan 1
seit 1
год 1
##ven 1
Zeit 1
##ер 1
95 1
ایران 1
##ская 1
novembre 1
Per 1
nasod 1
Edward 1
##zen 1
भाषा 1
Division 1
net 1
service 1
##ui 1
held 1
thực 1
налази 1
autres 1
Το 1
Population 1
Mark 1
##ei 1
menjadi 1
Time 1
Land 1
đến 1
aussi 1
Nord 1
thuộc 1
Lee 1
##° 1
member 1
##ے 1
населения 1
song 1
##ци 1
##rio 1
back 1
##era 1
##са 1
85 1
agosto 1
##ова 1
Times 1
hans 1
##U 1
##rd 1
anos 1
##ж 1
German 1
##nik 1
bien 1
##ин 1
##인 1
Institute 1
deze 1
йогӀу 1
Is 1
був 1
Terrängen 1
sul 1
named 1
గ్రామంలో 1
##ами 1
hun 1
seg 1
##ville 1
##sch 1
andere 1
onder 1
government 1
120 1
دے 1
Carlos 1
এবং 1
км² 1
בשנת 1
Group 1
##lan 1
depuis 1
unha 1
onde 1
##tan 1
nad 1
##ene 1
alors 1
Alexander 1
их 1
Live 1
62 1
XX 1
РФ 1
##ական 1
като 1
að 1
khi 1
Према 1
88 1
юкъа 1
Hij 1
large 1
video 1
##া 1
Modern 1
lugar 1
mot 1
Radio 1
او 1
##ד 1
tại 1
Os 1
casa 1
age 1
##lor 1
également 1
##도 1
să 1
##ב 1
##сы 1
##zo 1
##cie 1
essere 1
##је 1
company 1
##ure 1
jeho 1
life 1
però 1
##ley 1
binon 1
district 1
його 1
Rio 1
##ją 1
##ran 1
през 1
Barcelona 1
São 1
país 1
production 1
line 1
##ль 1
##ын 1
72 1
meg 1
##ere 1
так 1
palibot 1
##ris 1
main 1
fr 1
First 1
eerste 1
##kin 1
##tte 1
mi 1
gikan 1
ali 1
Index 1
White 1
ngày 1
ainsi 1
efter 1
Team 1
##ting 1
social 1
frå 1
latach 1
Information 1
##dan 1
Science 1
Una 1
took 1
##nce 1
##क 1
России 1
left 1
##ском 1
siècle 1
էր 1
##ně 1
Rock 1
Data 1
Op 1
jedoch 1
ordo 1
##áu 1
##లు 1
série 1
around 1
##ці 1
היה 1
huvudsak 1
##ների 1
##ја 1
did 1
habitantes 1
could 1
1903 1
Mary 1
##bu 1
##하는 1
première 1
82 1
##ц 1
##נה 1
built 1
##ска 1
capital 1
1000 1
99 1
form 1
##сти 1
پر 1
nell 1
##ದ 1
pado 1
या 1
دارد 1
joka 1
dla 1
habitants 1
され 1
##ului 1
##tta 1
##ты 1
Diptera 1
##ның 1
Friedrich 1
población 1
abril 1
##té 1
However 1
Ein 1
fa 1
##ber 1
पर 1
250 1
66 1
##ın 1
##ப் 1
یا 1
News 1
region 1
town 1
From 1
##ale 1
86 1
Carl 1
ersten 1
variansen 1
lan 1
pre 1
##ス 1
zona 1
##ство 1
Angeles 1
##val 1
##ি 1
##で 1
Simon 1
tempo 1
finale 1
kom 1
famili 1
When 1
INSEE 1
##ère 1
etter 1
##zioni 1
ਵਿੱਚ 1
##burg 1
rock 1
side 1
hadde 1
где 1
play 1
present 1
1901 1
63 1
##ah 1
terletak 1
СССР 1
partie 1
sy 1
VI 1
PMID 1
Brasil 1
##де 1
viene 1
første 1
##ния 1
היא 1
Pada 1
Su 1
اے 1
Von 1
banda 1
Tom 1
##age 1
if 1
##க் 1
##sche 1
##tus 1
насеље 1
grupo 1
##є 1
primo 1
Atlas 1
water 1
##ksi 1
etwa 1
Hill 1
った 1
##ique 1
##ções 1
kingdom 1
##ła 1
što 1
received 1
bio 1
Jones 1
##ás 1
Anna 1
##ano 1
zich 1
1902 1
published 1
##ського 1
##ido 1
word 1
96 1
されている 1
##기 1
οι 1
##ства 1
1890 1
61 1
жана 1
67 1
Chicago 1
mar 1
công 1
ciudad 1
loro 1
iki 1
живело 1
81 1
served 1
كان 1
98 1
97 1
për 1
##יה 1
point 1
##ð 1
##ros 1
thể 1
drei 1
Santiago 1
##liche 1
mort 1
List 1
לא 1
Championship 1
Jack 1
##ió 1
Bureau 1
Coleoptera 1
##cji 1
##मा 1
Diakses 1
##ino 1
##mann 1
##ٔ 1
##cu 1
##ою 1
##nek 1
##dy 1
match 1
Awards 1
temps 1
Roman 1
Day 1
mu 1
גם 1
include 1
top 1
heeft 1
Juli 1
700 1
cuando 1
##ü 1
68 1
##mer 1
são 1
because 1
Cerambycidae 1
etc 1
Juni 1
pri 1
##ат 1
##ور 1
mens 1
within 1
kann 1
##ט 1
Real 1
bulan 1
хуьлу 1
##ms 1
му 1
эвла 1
##ito 1
##ном 1
##tet 1
đó 1
mentre 1
Son 1
##H 1
central 1
##inen 1
Por 1
along 1
marzo 1
##nej 1
five 1
Sa 1
byla 1
Animalia 1
##lı 1
83 1
того 1
record 1
ning 1
jego 1
España 1
##jen 1
said 1
Internet 1
##ný 1
fueron 1
##ego 1
về 1
sonra 1
Albert 1
Culture 1
##서 1
Marine 1
wieder 1
ایک 1
76 1
radio 1
orang 1
provincia 1
висини 1
том 1
##ル 1
andre 1
##ate 1
هي 1
kam 1
obra 1
##nje 1
ما 1
##ند 1
##ima 1
engleski 1
##ских 1
ήταν 1
filum 1
##də 1
six 1
ва 1
puis 1
important 1
##하고 1
##ium 1
##ای 1
надморској 1
##ens 1
92 1
##jos 1
để 1
director 1
italiano 1
PDF 1
members 1
##nih 1
Texas 1
##ње 1
Januar 1
last 1
##ого 1
mehr 1
насељу 1
million 1
small 1
Album 1
##ari 1
sido 1
Young 1
93 1
Big 1
буенча 1
died 1
program 1
vart 1
football 1
dân 1
buvo 1
quân 1
What 1
##했다 1
1898 1
78 1
pel 1
Williams 1
##kt 1
kelas 1
##ك 1
Arthropoda 1
Football 1
два 1
français 1
années 1
бассейны 1
best 1
bị 1
Walter 1
##ono 1
##지 1
##ში 1
##ק 1
contre 1
##को 1
71 1
לאחר 1
Este 1
##ő 1
bila 1
media 1
91 1
##ம் 1
##aan 1
quan 1
نفر 1
##wy 1
otros 1
##ι 1
77 1
##б 1
Party 1
##ף 1
される 1
Amerika 1
international 1
##ג 1
74 1
##lis 1
że 1
##leri 1
lors 1
##గా 1
jo 1
own 1
så 1
Indian 1
73 1
Vol 1
##zy 1
областан 1
1897 1
During 1
1896 1
như 1
##rat 1
##lig 1
zo 1
vo 1
death 1
very 1
##ции 1
nalazi 1
milimetro 1
час 1
##ver 1
شدهاست 1
DVD 1
air 1
marupokan 1
peut 1
Hän 1
koja 1
1899 1
##gt 1
69 1
نے 1
##ceae 1
vers 1
##we 1
Academy 1
##ем 1
inglés 1
87 1
##nja 1
için 1
மற்றும் 1
building 1
##ія 1
##sten 1
##ах 1
##gu 1
yr 1
satu 1
Great 1
ela 1
Under 1
Sant 1
importante 1
##nis 1
trên 1
1895 1
popular 1
##лі 1
Lac 1
lang 1
id 1
##스 1
mis 1
##iert 1
control 1
##하였다 1
Of 1
##ء 1
naselje 1
With 1
над 1
ਅਤੇ 1
##ح 1
##č 1
##ש 1
mereka 1
##ld 1
##ное 1
ilə 1
Brown 1
Во 1
аса 1
jaar 1
anys 1
third 1
انگلیسی 1
##let 1
Johann 1
beim 1
##ques 1
па 1
##ých 1
sự 1
ele 1
##와 1
services 1
dall 1
tanggal 1
89 1
esis 1
tym 1
Nam 1
Werner 1
still 1
Road 1
##ν 1
અને 1
seinem 1
бойынша 1
trois 1
##ké 1
todo 1
todos 1
jsou 1
álbum 1
##rum 1
ông 1
mei 1
си 1
һыу 1
Bei 1
Kunze 1
ਦੀ 1
நாள் 1
како 1
##ಗಳು 1
##ге 1
Wilhelm 1
centre 1
##ите 1
##X 1
##pi 1
those 1
##ara 1
col 1
Cerro 1
##od 1
थाय् 1
##ys 1
##tti 1
kilometro 1
Top 1
##ие 1
دی 1
fou 1
And 1
Church 1
её 1
##리 1
Wever 1
children 1
kayu 1
які 1
בין 1
اینگیلیسجه 1
Mit 1
##اء 1
Culham 1
држави 1
Night 1
##ite 1
meer 1
##ני 1
chính 1
##pen 1
про 1
##ین 1
হয় 1
##ј 1
##per 1
vol 1
##ez 1
By 1
##og 1
ter 1
##ную 1
##ato 1
många 1
1889 1
country 1
seinen 1
vier 1
##מה 1
1880 1
##nak 1
ia 1
##use 1
або 1
agus 1
është 1
ידי 1
haar 1
až 1
##сть 1
Version 1
##ele 1
##ա 1
tak 1
included 1
##ал 1
jusqu 1
Jacques 1
општини 1
mayor 1
book 1
94 1
diese 1
##ня 1
##nti 1
##ди 1
##ser 1
liegt 1
north 1
né 1
había 1
թվականի 1
María 1
##ח 1
Army 1
Сахьтан 1
lat 1
##ster 1
##ар 1
plaats 1
två 1
України 1
##schen 1
ildə 1
##ue 1
лет 1
##ť 1
Germany 1
mindre 1
zuen 1
США 1
##sia 1
eds 1
була 1
Asia 1
##ras 1
öster 1
##ret 1
Super 1
causa 1
మరియు 1
points 1
izan 1
79 1
Dezember 1
später 1
centro 1
који 1
wo 1
ano 1
через 1
1870 1
Grande 1
##än 1
##ју 1
##ту 1
##ova 1
##sko 1
##chi 1
type 1
##ile 1
ihre 1
στη 1
President 1
Scott 1
##ով 1
cidade 1
tai 1
Luis 1
##isch 1
##sse 1
##tar 1
just 1
Council 1
##ane 1
##ija 1
Social 1
Насеље 1
juo 1
بين 1
##ել 1
Australian 1
нь 1
савезној 1
tiene 1
##iva 1
После 1
Prix 1
Guerra 1
##nych 1
Centre 1
twee 1
större 1
dove 1
tour 1
##ş 1
ces 1
Con 1
као 1
antes 1
tersebut 1
Pedro 1
τις 1
avant 1
Sir 1
Argentina 1
Max 1
сахьт 1
కేంద్రం 1
led 1
##ᵉ 1
mô 1
Kanada 1
##ых 1
Ende 1
##ában 1
another 1
We 1
questo 1
##bar 1
##ена 1
பார்த்த 1
città 1
##ye 1
metros 1
comune 1
piano 1
##ә 1
ως 1
також 1
##ि 1
família 1
Africa 1
comuna 1
So 1
near 1
después 1
ovat 1
ին 1
title 1
see 1
norte 1
##ії 1
cual 1
##su 1
##ць 1
کرد 1
Liga 1
1886 1
koje 1
old 1
often 1
tem 1
Iran 1
different 1
##нда 1
##rie 1
Windows 1
jej 1
1885 1
très 1
ako 1
##kom 1
venne 1
##sel 1
März 1
Harry 1
թվականին 1
Mr 1
индексаш 1
##נים 1
Verlag 1
##ona 1
tanto 1
##mas 1
dar 1
##lichen 1
1894 1
##one 1
växer 1
player 1
information 1
##ade 1
president 1
nước 1
Department 1
##ський 1
down 1
Little 1
Arts 1
##ської 1
Portugal 1
gada 1
או 1
##ция 1
segundo 1
Di 1
##사 1
leta 1
nas 1
буйынса 1
بر 1
##ға 1
##ák 1
Power 1
##line 1
sen 1
##van 1
position 1
temporada 1
میشود 1
Research 1
1893 1
##ft 1
live 1
Meyer 1
##cha 1
##어 1
Jr 1
1892 1
который 1
##dd 1
groupe 1
role 1
Blue 1
isang 1
##cions 1
##кі 1
what 1
има 1
##net 1
ich 1
fins 1
qual 1
Sciences 1
1891 1
làm 1
##ais 1
##eur 1
omgivningarna 1
VII 1
##ça 1
order 1
Israel 1
François 1
##цы 1
puede 1
نام 1
Francia 1
##aren 1
web 1
это 1
car 1
خود 1
late 1
tout 1
انگریزی 1
##ey 1
hoa 1
##ira 1
##их 1
bet 1
described 1
Deutschland 1
без 1
##uk 1
Русия 1
poi 1
किया 1
подацима 1
Spesies 1
нийса 1
##lin 1
career 1
består 1
grand 1
##ore 1
heute 1
Men 1
##ج 1
you 1
Dans 1
##ց 1
климат 1
##ena 1
лелаш 1
##W 1
##ча 1
##ков 1
Global 1
Durante 1
##ային 1
także 1
##ise 1
åt 1
Teil 1
تا 1
poder 1
sunt 1
sekä 1
##vu 1
født 1
jak 1
##est 1
vattendrag 1
eran 1
1888 1
tu 1
dann 1
110 1
XVIII 1
moved 1
##ika 1
##rn 1
Joe 1
nelle 1
##uje 1
plan 1
durant 1
gemeente 1
Green 1
Lo 1
gadā 1
Universität 1
Adam 1
Good 1
شده 1
Els 1
може 1
fel 1
##zu 1
më 1
hai 1
##ят 1
були 1
Wilson 1
##lər 1
volta 1
make 1
XVI 1
ने 1
spesies 1
आहे 1
##uri 1
grandes 1
studio 1
##ੀ 1
осіб 1
##able 1
##ор 1
Co 1
hvor 1
##ী 1
caso 1
plusieurs 1
presidente 1
##ক 1
Creek 1
более 1
aastal 1
Manuel 1
##sis 1
##се 1
monde 1
ez 1
tipo 1
Ed 1
sans 1
##ité 1
##ná 1
која 1
عدد 1
glesbefolkat 1
الذي 1
సమీప 1
again 1
Nova 1
IUCN 1
##ним 1
period 1
##vel 1
##een 1
są 1
erste 1
ihm 1
##ali 1
Arthur 1
##ring 1
##ves 1
mundo 1
Instituto 1
##ина 1
##α 1
جو 1
música 1
##ді 1
south 1
support 1
Bay 1
väster 1
lại 1
##ses 1
Copa 1
Chris 1
iko 1
##nın 1
##ال 1
nordväst 1
##ges 1
##ам 1
kun 1
هذه 1
Bill 1
avril 1
quatre 1
Western 1
jorden 1
Prema 1
але 1
##ard 1
até 1
Jackson 1
way 1
Afrika 1
much 1
ho 1
Gemeinde 1
sitt 1
vum 1
##ente 1
ils 1
##న 1
Song 1
человек 1
लिए 1
power 1
##ित 1
##ں 1
Eine 1
##ih 1
##ín 1
دا 1
women 1
gant 1
model 1
konnte 1
father 1
musical 1
##ham 1
número 1
Decock 1
thời 1
Didžiulis 1
##ende 1
##ע 1
Abucay 1
وی 1
ਦਾ 1
mismo 1
##tra 1
##ž 1
Au 1
Serie 1
##ության 1
##ncia 1
similar 1
Two 1
house 1
Law 1
##lia 1
Chile 1
así 1
हो 1
##ps 1
html 1
gia 1
fois 1
##лар 1
ary 1
##eri 1
##য় 1
Her 1
##ès 1
హెక్టార్లు 1
##ಿ 1
между 1
1878 1
##ша 1
##rea 1
##лық 1
berg 1
Series 1
Mae 1
Johnson 1
Names 1
sulla 1
کو 1
established 1
even 1
محمد 1
об 1
1883 1
maj 1
три 1
These 1
##ées 1
động 1
law 1
vagy 1
##лы 1
Li 1
##ati 1
kuperad 1
він 1
article 1
États 1
##sh 1
nhà 1
##ი 1
má 1
##ds 1
miejsce 1
Mike 1
Platz 1
Gran 1
Michel 1
##ix 1
##tic 1
yılında 1
level 1
1887 1
##ಲ್ಲಿ 1
Kirche 1
під 1
##ის 1
anderen 1
cũng 1
samhälle 1
भी 1
##ներ 1
Thompson 1
haben 1
عليه 1
##も 1
##ев 1
mutta 1
##nom 1
face 1
fler 1
Giovanni 1
Cette 1
Chinese 1
München 1
far 1
##ల 1
##cije 1
Ben 1
Register 1
##ì 1
Long 1
Steve 1
který 1
Närmaste 1
##ami 1
##ња 1
##ula 1
suite 1
##ide 1
norr 1
##це 1
##tos 1
vil 1
##ación 1
##ee 1
##ala 1
место 1
Philip 1
##ры 1
##ons 1
им 1
among 1
hier 1
##cí 1
##cs 1
games 1
nära 1
করে 1
opera 1
1860 1
cap 1
Ce 1
##tà 1
##è 1
Media 1
##ły 1
Dit 1
##ės 1
që 1
nhất 1
Geraadpleegd 1
Office 1
##met 1
##ಯ 1
style 1
Sud 1
كانت 1
community 1
circa 1
Wikimedia 1
sådana 1
##het 1
##ната 1
Paulo 1
tudi 1
##op 1
memiliki 1
sempre 1
##tik 1
1884 1
##ام 1
##ът 1
##fa 1
fino 1
##nza 1
##via 1
Heinrich 1
##하여 1
full 1
оьрс 1
dapat 1
##وں 1
##yn 1
deel 1
syahan 1
using 1
came 1
Force 1
זה 1
##mos 1
##ford 1
xã 1
130 1
##ба 1
##ше 1
inwoners 1
##ком 1
lebih 1
foram 1
##cher 1
##ism 1
written 1
Taylor 1
kot 1
jämfört 1
ganska 1
ovanligt 1
##issa 1
development 1
##ç 1
construction 1
##field 1
natural 1
sai 1
により 1
gan 1
##ան 1
является 1
Februar 1
list 1
php 1
historia 1
weer 1
##ss 1
ilk 1
població 1
1848 1
debut 1
1882 1
1881 1
##ના 1
nebo 1
##ները 1
juin 1
stata 1
##स 1
produced 1
##tis 1
fine 1
muy 1
##اں 1
kasarangang 1
##ici 1
Lord 1
##된 1
قرار 1
které 1
centrala 1
förekomst 1
went 1
genomsnittlig 1
right 1
quale 1
Show 1
next 1
аз 1
Signifikant 1
##heid 1
lub 1
modern 1
started 1
##ল 1
із 1
##ил 1
become 1
стал 1
Russian 1
avait 1
times 1
##ने 1
famille 1
també 1
Columbia 1
##nan 1
##rna 1
année 1
primeiro 1
case 1
##ਰ 1
##eg 1
tous 1
##им 1
##urs 1
##ым 1
Russell 1
kepada 1
ru 1
min 1
##tat 1
real 1
área 1
против 1
Service 1
Anne 1
Are 1
##cija 1
tema 1
στις 1
##tura 1
ஒரு 1
Para 1
هذا 1
##ous 1
який 1
students 1
ihrer 1
##ell 1
##ados 1
През 1
bereits 1
given 1
avoir 1
Une 1
1st 1
1871 1
än 1
Roger 1
lain 1
реестры 1
##ës 1
##ο 1
Ali 1
##ел 1
##po 1
Billboard 1
nordost 1
##ши 1
married 1
यह 1
hiện 1
##mus 1
UEFA 1
janvier 1
uz 1
zituzten 1
##rer 1
Bank 1
marca 1
##ції 1
Women 1
##ता 1
##nn 1
Kim 1
material 1
##ние 1
##ত 1
encuentra 1
mesmo 1
900 1
##mes 1
various 1
января 1
akan 1
##nim 1
average 1
##tă 1
dins 1
Your 1
саны 1
Azərbaycan 1
äbinon 1
yra 1
fire 1
septembre 1
Վերցված 1
Plants 1
##ingen 1
##ию 1
##ese 1
##ско 1
Year 1
шп 1
round 1
##ské 1
ба 1
Российн 1
Otto 1
take 1
website 1
років 1
##že 1
head 1
כי 1
##ù 1
##bra 1
##ф 1
Bob 1
##cio 1
gov 1
##եր 1
nin 1
origine 1
secondo 1
morte 1
súa 1
dort 1
astéroid 1
##за 1
let 1
class 1
junto 1
Федерацин 1
##ht 1
##ral 1
##ți 1
persones 1
##ӣ 1
Inc 1
hay 1
saison 1
také 1
Ohio 1
octobre 1
1861 1
samt 1
Henri 1
те 1
них 1
kumbang 1
Lietuvos 1
story 1
సంఖ్య 1
Мексику 1
ihn 1
ac 1
ഒരു 1
حيث 1
1864 1
Malaysia 1
tussen 1
că 1
##되었다 1
ging 1
1857 1
1879 1
##én 1
##ًا 1
Virginia 1
zuten 1
modo 1
##נו 1
време 1
жылы 1
##tica 1
##yi 1
Empire 1
##vé 1
##יים 1
Entre 1
That 1
##би 1
1800 1
##nego 1
##ket 1
plu 1
##ం 1
##eren 1
1876 1
Jahrhundert 1
Up 1
altres 1
fer 1
Wien 1
##llo 1
Victoria 1
són 1
without 1
date 1
##ले 1
Esta 1
мен 1
Florida 1
دو 1
equipo 1
##िक 1
yo 1
siglo 1
huvudsakligen 1
tal 1
während 1
having 1
##ده 1
Reference 1
który 1
Republic 1
Seine 1
Boston 1
design 1
election 1
все 1
sia 1
első 1
##ismo 1
Special 1
beiden 1
##ungen 1
##ல் 1
bahin 1
##tz 1
että 1
mer 1
cerca 1
altri 1
##си 1
состав 1
language 1
padre 1
Queen 1
punto 1
dai 1
FIFA 1
store 1
VIII 1
nhiều 1
##iem 1
först 1
один 1
##ют 1
Program 1
short 1
pop 1
##ो 1
term 1
##માં 1
только 1
contro 1
##hu 1
##bre 1
bäldoti 1
lifayelas 1
Foi 1
##ң 1
forces 1
Alfred 1
Ottawa 1
సౌకర్యం 1
##rte 1
##ної 1
west 1
political 1
download 1
Francis 1
##ero 1
Ha 1
##igen 1
tarafından 1
katika 1
Ma 1
created 1
können 1
Francesco 1
##ement 1
Tony 1
segunda 1
division 1
Franz 1
около 1
Unis 1
##gang 1
nuo 1
ذلك 1
söder 1
Lewis 1
miêu 1
##اد 1
##ną 1
##bus 1
##자 1
##ĕ 1
##ਨ 1
있는 1
##ਾ 1
Een 1
##bel 1
oficial 1
vie 1
Old 1
cc 1
ένα 1
1877 1
titre 1
##rin 1
##nı 1
##тар 1
autre 1
momento 1
suoi 1
##ili 1
ara 1
ft 1
juillet 1
##los 1
1873 1
1863 1
##ви 1
1810 1
etxek 1
था 1
metal 1
Je 1
1875 1
nr 1
##ila 1
however 1
Book 1
ihr 1
phát 1
1633 1
города 1
という 1
##ため 1
##ging 1
##ನ 1
Des 1
##idad 1
Commons 1
континенталан 1
1865 1
programa 1
ਨੂੰ 1
Natural 1
##nosti 1
##erd 1
##ff 1
1867 1
Frantsesez 1
skulle 1
few 1
mellom 1
##ля 1
east 1
Digital 1
uso 1
Diese 1
communes 1
André 1
##ೆ 1
##א 1
stesso 1
##sı 1
##ét 1
eren 1
African 1
naselju 1
##म 1
Sky 1
века 1
##vis 1
##ram 1
México 1
Japanese 1
bộ 1
160 1
pays 1
aos 1
##dia 1
professor 1
announced 1
arte 1
manera 1
República 1
worked 1
##rar 1
확인함 1
1868 1
##ните 1
bez 1
##ede 1
##ый 1
Stephen 1
Patrick 1
sei 1
Saison 1
primeira 1
Ray 1
ima 1
##че 1
##य 1
Villa 1
##қ 1
half 1
daha 1
لا 1
войны 1
1850 1
##ында 1
##iv 1
лараран 1
Some 1
микрохаамаш 1
Toppen 1
Google 1
##ën 1
##장 1
##ong 1
XIII 1
online 1
##ー 1
Robinson 1
Taxonomic 1
bil 1
Home 1
кӀошт 1
##თ 1
Universidad 1
Costa 1
##iti 1
##ando 1
Miguel 1
dy 1
##ని 1
seperti 1
Johannes 1
hành 1
bäldotü 1
180 1
##ト 1
joined 1
წლის 1
eit 1
##jas 1
##if 1
Region 1
project 1
##ғы 1
1500 1
##rus 1
See 1
economic 1
structure 1
Romania 1
##iques 1
Buenos 1
تے 1
dello 1
décembre 1
route 1
eo 1
ass 1
hanno 1
Nature 1
Consultáu 1
field 1
gibt 1
##ləri 1
1866 1
között 1
1872 1
SS 1
erhielt 1
XVII 1
1859 1
سنة 1
équipe 1
theo 1
vita 1
vir 1
wrote 1
området 1
vi 1
sos 1
140 1
Ia 1
Aires 1
free 1
Airport 1
شهر 1
notamment 1
##երի 1
##Z 1
Sun 1
Act 1
##nym 1
Rainfall 1
##ding 1
beste 1
updated 1
seorang 1
##த் 1
она 1
Brian 1
1869 1
##ern 1
##heim 1
него 1
ulan 1
##las 1
général 1
##ett 1
##nika 1
sub 1
août 1
1862 1
days 1
lieu 1
Geschichte 1
##jon 1
Georg 1
##ña 1
##nas 1
Wikipedia 1
##ay 1
Andrew 1
##elle 1
diesem 1
tarde 1
Books 1
również 1
Lady 1
iš 1
maart 1
Jawa 1
works 1
##ness 1
Mario 1
actual 1
##ani 1
ہیں 1
God 1
אך 1
Amsterdam 1
##ं 1
Consultado 1
قبل 1
Pro 1
Fernando 1
Canadian 1
Studies 1
race 1
որ 1
Bad 1
которые 1
より 1
returned 1
Kūh 1
nije 1
1874 1
aquest 1
дәүләт 1
Oscar 1
quien 1
bol 1
party 1
##시 1
military 1
status 1
سی 1
であり 1
fi 1
waar 1
aj 1
125 1
##யில் 1
Seit 1
XIV 1
przy 1
موقع 1
professional 1
enpresak 1
Online 1
Eric 1
##ella 1
municipio 1
##ರ 1
Game 1
となる 1
sydväst 1
month 1
kde 1
actor 1
##ու 1
##tre 1
Enero 1
##ु 1
##ника 1
release 1
##nts 1
Za 1
##lus 1
máis 1
Institut 1
founded 1
##tive 1
ही 1
Londres 1
octubre 1
##cja 1
##dad 1
sendo 1
Guide 1
open 1
##lli 1
salah 1
Fue 1
Hot 1
Publishing 1
##ék 1
##ký 1
run 1
Korea 1
XII 1
XV 1
Regie 1
Court 1
##nus 1
##한다 1
がある 1
tiempo 1
2nd 1
భూమి 1
lead 1
research 1
Dictionary 1
##dır 1
EP 1
এই 1
dessen 1
Meksiku 1
##owy 1
Ludwig 1
कि 1
##uta 1
мая 1
https 1
населення 1
##ги 1
101 1
##து 1
win 1
барамера 1
även 1
possible 1
však 1
шеран 1
faire 1
##way 1
##ться 1
##nica 1
##bach 1
color 1
Wales 1
Oslo 1
##vas 1
regionen 1
עד 1
##ಕ 1
Point 1
##σε 1
Library 1
##هم 1
época 1
miles 1
##ве 1
نیز 1
pola 1
##owych 1
##게 1
homes 1
business 1
According 1
Mission 1
guerre 1
kanssa 1
Marco 1
civil 1
television 1
omkring 1
Jakarta 1
августа 1
hem 1
آمریکا 1
inte 1
Mundial 1
Elizabeth 1
##ன் 1
lost 1
Victor 1
nationale 1
nó 1
##টি 1
dag 1
Jim 1
human 1
Pour 1
Second 1
##erte 1
Auf 1
día 1
Prince 1
På 1
##ಗಳನ್ನು 1
forme 1
Mitglied 1
Entertainment 1
##tal 1
তিনি 1
##ae 1
##ń 1
denne 1
##owej 1
##ties 1
##ન 1
করেন 1
Como 1
church 1
française 1
ëd 1
action 1
##ál 1
##her 1
molto 1
##чи 1
visini 1
##zer 1
cours 1
##una 1
##iro 1
Après 1
secolo 1
шш 1
рус 1
まで 1
шийла 1
##xa 1
tỉnh 1
tant 1
eus 1
gab 1
magyar 1
hett 1
recorded 1
sede 1
together 1
superficie 1
##ové 1
كما 1
siendo 1
every 1
People 1
aveva 1
sydost 1
én 1
##tro 1
seguito 1
##ման 1
गया 1
rei 1
##り 1
Set 1
dette 1
Miss 1
Ta 1
anti 1
##illa 1
##्य 1
##ಗಳ 1
pertama 1
elected 1
Ford 1
stagione 1
##vá 1
leurs 1
района 1
##owe 1
Dan 1
Century 1
hade 1
erano 1
इस 1
kwa 1
estaven 1
Sam 1
ان 1
となった 1
##osa 1
##amente 1
##bles 1
они 1
után 1
##ген 1
empresa 1
continued 1
##원 1
films 1
Davis 1
جمعیت 1
dio 1
##ು 1
nouveau 1
##ط 1
Mount 1
##ವನ್ನು 1
considered 1
Wolfgang 1
##ній 1
zituen 1
making 1
chỉ 1
Station 1
στον 1
テレビ 1
menos 1
deutschen 1
Project 1
office 1
ok 1
živelo 1
شہر 1
platt 1
nadmorskoj 1
##скан 1
principale 1
Alan 1
track 1
भारत 1
##ű 1
ఒక 1
##ను 1
##ро 1
moment 1
##ется 1
Claude 1
##cus 1
episode 1
Be 1
bylo 1
yon 1
##יו 1
chi 1
Fort 1
roman 1
##ência 1
Carolina 1
jednak 1
việc 1
vai 1
body 1
##ला 1
stanovništva 1
##ori 1
При 1
IX 1
থেকে 1
##ור 1
##לה 1
province 1
política 1
Nueva 1
##bia 1
той 1
##ז 1
##ре 1
nın 1
##ными 1
example 1
nacional 1
Nr 1
##ские 1
Minister 1
##ação 1
Line 1
##ول 1
Estado 1
##ру 1
Most 1
##isk 1
Gold 1
bajo 1
Рәсәй 1
##rne 1
বারো 1
policy 1
quốc 1
él 1
יותר 1
edition 1
thị 1
একটি 1
encore 1
##jan 1
opened 1
ere 1
syn 1
Town 1
algoritmo 1
ti 1
##hin 1
wife 1
##ných 1
##nos 1
région 1
ότι 1
Professor 1
Valley 1
autor 1
##š 1
khác 1
##wan 1
campo 1
##ās 1
##кой 1
Model 1
kas 1
##վել 1
##ich 1
##мен 1
##fi 1
teams 1
##ман 1
stad 1
##ик 1
כל 1
kaominina 1
елга 1
##ins 1
##ré 1
dende 1
بتاريخ 1
##gar 1
event 1
##lui 1
До 1
Российской 1
##ille 1
thế 1
sinh 1
##대 1
news 1
##lige 1
Việt 1
Auch 1
Golden 1
этого 1
##ске 1
##يا 1
performance 1
##lse 1
##san 1
Cruz 1
Spisak 1
Carlo 1
prema 1
Go 1
мм 1
nam 1
Enrique 1
moins 1
eu 1
poco 1
##ful 1
DC 1
Jersey 1
geographical 1
Bernard 1
Zealand 1
joylashgan 1
Sur 1
ద్వారా 1
Naselje 1
Corporation 1
##feld 1
##ін 1
active 1
bug 1
bola 1
##nost 1
chiến 1
yw 1
##haus 1
##מים 1
##ntes 1
Stone 1
sama 1
Sydney 1
outros 1
##يد 1
##רה 1
iku 1
där 1
Susan 1
##ći 1
special 1
Austria 1
ora 1
Committee 1
Namen 1
sehr 1
##uar 1
Britannica 1
био 1
による 1
##set 1
sjö 1
Other 1
марта 1
Federal 1
result 1
##del 1
##ما 1
##bb 1
##lio 1
##isme 1
put 1
تم 1
Games 1
Development 1
histoire 1
Out 1
février 1
μια 1
وقد 1
questa 1
altre 1
##kel 1
Princeton 1
##ण 1
jälkeen 1
Familie 1
tego 1
Who 1
qua 1
Um 1
105 1
##ag 1
Roy 1
tätbefolkat 1
##해 1
Girl 1
##ович 1
##ct 1
després 1
dva 1
Климат 1
##kou 1
zusammen 1
periodo 1
##ની 1
1830 1
If 1
წელს 1
tiếng 1
##ս 1
Post 1
oko 1
sent 1
##ments 1
estat 1
areas 1
bahasa 1
իր 1
flere 1
##zie 1
Trung 1
##ión 1
этом 1
pode 1
##isi 1
Москваца 1
##dal 1
##وا 1
cùng 1
damit 1
части 1
Foundation 1
Ernst 1
Eesti 1
Sin 1
mange 1
appeared 1
реки 1
##nog 1
Space 1
##ose 1
##ија 1
Factbook 1
hag 1
də 1
peu 1
##йн 1
##ી 1
Kong 1
##ые 1
available 1
kada 1
Government 1
##nar 1
soit 1
##ões 1
##ces 1
further 1
lag 1
yari 1
front 1
##up 1
private 1
Rome 1
##ების 1
##יות 1
していた 1
села 1
Pacific 1
##ait 1
##այի 1
While 1
##fe 1
تاریخینده 1
stand 1
менен 1
نسمة 1
йовха 1
Stockholm 1
san 1
growth 1
عبد 1
##ую 1
Master 1
tard 1
##она 1
Miller 1
working 1
Latin 1
keine 1
Für 1
##ություն 1
Кеп 1
##ана 1
##ությունը 1
common 1
living 1
##ții 1
XI 1
developed 1
formed 1
##вання 1
հետ 1
august 1
others 1
##اب 1
secara 1
Web 1
Ireland 1
##oi 1
##oni 1
##ante 1
título 1
Hollywood 1
ligne 1
##gas 1
estaba 1
##부 1
Public 1
Kingdom 1
Sverige 1
##sson 1
labon 1
##ño 1
##دة 1
##ean 1
##ая 1
Story 1
lu 1
zurück 1
район 1
##ło 1
Spanish 1
##ння 1
zif 1
Russia 1
Diego 1
##یت 1
dago 1
embargo 1
##υ 1
census 1
novel 1
blir 1
##ਕ 1
còn 1
nebula 1
खः 1
##ское 1
##mar 1
##ција 1
ise 1
veel 1
##сті 1
mondiale 1
delstaten 1
##ズ 1
Bruce 1
study 1
بیر 1
##ме 1
##ү 1
била 1
ialah 1
dinhi 1
nhân 1
##نا 1
Review 1
anaa 1
bilo 1
Он 1
tako 1
1840 1
mint 1
##Y 1
করা 1
##ència 1
Magnoliopsida 1
dentro 1
ки 1
декабря 1
المتحدة 1
δεν 1
Hymenoptera 1
##pus 1
nafar 1
Order 1
eng 1
Premier 1
##rono 1
متر 1
կազմում 1
través 1
entry 1
Va 1
##eta 1
##る 1
Pennsylvania 1
Islam 1
Alex 1
science 1
Yn 1
official 1
##nta 1
aquesta 1
Port 1
##kat 1
##К 1
град 1
negara 1
young 1
στα 1
Sea 1
Premio 1
Board 1
##ția 1
Budapest 1
militar 1
##še 1
бар 1
##ҳои 1
##ム 1
Anthony 1
##and 1
kad 1
Lepidoptera 1
Quốc 1
##ggio 1
##чно 1
mycket 1
##wood 1
obefolkad 1
patedik 1
##ения 1
addition 1
himself 1
tuvo 1
##ete 1
##zia 1
Part 1
državi 1
এর 1
##dores 1
great 1
##ında 1
2009an 1
signed 1
độ 1
ın 1
gruppo 1
although 1
Navy 1
##ено 1
июля 1
##oa 1
Network 1
Movie 1
##hen 1
bahwa 1
##ված 1
hơn 1
mare 1
##С 1
furono 1
recensement 1
never 1
została 1
how 1
##ті 1
América 1
##ська 1
##ા 1
##적 1
Regional 1
##し 1
бил 1
gradova 1
interior 1
tras 1
sử 1
devient 1
Battle 1
deren 1
Last 1
って 1
##ган 1
Milano 1
че 1
cultural 1
102 1
should 1
Can 1
már 1
Janeiro 1
سطح 1
Ӏа 1
اطلع 1
##ють 1
הייתה 1
otras 1
Samuel 1
Family 1
posto 1
bija 1
##ர் 1
két 1
##ट 1
##sku 1
topon 1
##isen 1
Geonames 1
##ία 1
कथं 1
##ette 1
##할 1
maior 1
Biography 1
Ort 1
само 1
videtü 1
lunetü 1
##čno 1
##ರು 1
lett 1
への 1
##fer 1
alta 1
NBA 1
పైబడిన 1
##ған 1
##tie 1
Douglas 1
neu 1
तथा 1
##회 1
Its 1
##ivo 1
court 1
##면 1
##jí 1
parti 1
Sohn 1
##상 1
celui 1
Rose 1
bekannt 1
##ao 1
map 1
1858 1
wieku 1
playing 1
Fox 1
##dá 1
составе 1
Main 1
disco 1
##ം 1
ihren 1
staat 1
personas 1
francés 1
Non 1
csak 1
##dt 1
section 1
##зи 1
కూడా 1
appointed 1
##nou 1
Gordon 1
ente 1
park 1
distrito 1
##ö 1
collection 1
##werk 1
tutti 1
Civil 1
once 1
##get 1
Disney 1
která 1
pendant 1
##ši 1
2007an 1
##دا 1
Monte 1
zm 1
ant 1
tam 1
две 1
համար 1
##ಾ 1
Illinois 1
hon 1
Final 1
Du 1
##ary 1
personal 1
##ään 1
##מן 1
xuất 1
sea 1
idea 1
##յան 1
##sä 1
municipal 1
طرفیندن 1
אשר 1
thứ 1
talet 1
Республики 1
Commission 1
away 1
education 1
selon 1
##ora 1
hit 1
masa 1
Roberto 1
filme 1
##ych 1
##dra 1
Georges 1
Santo 1
##lag 1
Deze 1
##min 1
Summer 1
##ск 1
##ך 1
##vano 1
##ера 1
How 1
havde 1
##يات 1
bzw 1
Country 1
годах 1
FishBase 1
exemple 1
película 1
##pt 1
territorio 1
##tä 1
##жи 1
##დ 1
##ків 1
befindet 1
current 1
standard 1
июня 1
اک 1
must 1
donc 1
komt 1
##less 1
によって 1
vs 1
Major 1
cas 1
##iya 1
majd 1
350 1
zunächst 1
Video 1
##чки 1
##my 1
cuenta 1
##ই 1
nich 1
allem 1
##드 1
##ম 1
##zza 1
quella 1
punkt 1
Trade 1
Anderson 1
##ans 1
##ká 1
##ার 1
francesa 1
זו 1
Norte 1
leader 1
##če 1
dois 1
fils 1
particular 1
enw 1
##ör 1
Hamburg 1
Microsoft 1
##cos 1
##tions 1
##ր 1
##ść 1
định 1
##vet 1
politique 1
сентября 1
force 1
ohne 1
mil 1
police 1
##ി 1
متحدہ 1
può 1
октября 1
kasadpan 1
fast 1
ישראל 1
person 1
##ין 1
së 1
black 1
ese 1
Integrated 1
río 1
đồng 1
pot 1
Pristupljeno 1
1856 1
lifayels 1
hình 1
dua 1
proceni 1
gitas 1
ред 1
після 1
była 1
##тан 1
Sport 1
Education 1
##owa 1
##ени 1
mest 1
Leipzig 1
Dopo 1
polo 1
##व 1
##ého 1
##رة 1
1854 1
Report 1
classification 1
Casa 1
kilometers 1
Hong 1
return 1
##ൽ 1
##don 1
diverse 1
##ści 1
Howard 1
##ē 1
kang 1
suas 1
##nto 1
##ير 1
yer 1
così 1
character 1
Deutschen 1
##ската 1
Heart 1
besar 1
daerah 1
##عة 1
arī 1
File 1
Allen 1
though 1
##リー 1
##zh 1
Like 1
##ર 1
does 1
##ela 1
taken 1
йылға 1
Internacional 1
Plant 1
свою 1
principalmente 1
104 1
##чка 1
cinco 1
##па 1
##pan 1
Southern 1
ella 1
aver 1
Massachusetts 1
ја 1
##త 1
aunque 1
my 1
ham 1
Ltd 1
across 1
இந்த 1
född 1
weitere 1
जो 1
Mountain 1
especie 1
との 1
process 1
Three 1
nakon 1
##tto 1
یارانمیش 1
##į 1
##ზე 1
Nations 1
Campeonato 1
bere 1
start 1
##ama 1
ایشلدنلری 1
1849 1
مقالهسیندن 1
opp 1
##ola 1
gdzie 1
ویکیپدیاسینین 1
گؤتورولوبدور 1
chef 1
یوْخلانیلیبدیر 1
Theatre 1
español 1
culture 1
square 1
حتى 1
hy 1
pueden 1
وفي 1
##या 1
fase 1
diversos 1
##ast 1
##det 1
situada 1
books 1
banyak 1
tan 1
##μα 1
##ій 1
arasında 1
stor 1
##ava 1
sine 1
samo 1
##트 1
aby 1
##tek 1
##lari 1
##iste 1
mal 1
##kar 1
letech 1
##ota 1
##نی 1
bản 1
være 1
##дан 1
##ები 1
good 1
Joan 1
عنوان 1
tid 1
viên 1
inn 1
##cion 1
Planet 1
##ಗೆ 1
partido 1
sang 1
Concise 1
geen 1
##ário 1
Anh 1
vardır 1
début 1
##্য 1
Village 1
help 1
##ân 1
っている 1
##ய 1
##い 1
huyện 1
Colombia 1
1855 1
##կ 1
Frankfurt 1
deur 1
guitar 1
dies 1
hand 1
##һы 1
##ք 1
##η 1
Georgia 1
##ssä 1
रूप 1
dụng 1
##ика 1
Volume 1
##mis 1
##rsi 1
festival 1
daughter 1
Christopher 1
zone 1
##ે 1
source 1
##ön 1
nuevo 1
апреля 1
##iin 1
genre 1
にも 1
Marc 1
округу 1
Toronto 1
motor 1
##স 1
które 1
fick 1
ulohan 1
##iden 1
white 1
homme 1
település 1
##нь 1
її 1
Catherine 1
Nahimutang 1
##º 1
Québec 1
klimatzonen 1
vùng 1
##ką 1
##во 1
##лары 1
Soviet 1
тому 1
##ץ 1
##క 1
Business 1
performed 1
когда 1
events 1
##ته 1
Greek 1
थासय् 1
##ī 1
todas 1
ada 1
maja 1
##ൻ 1
mother 1
وجود 1
##нан 1
код 1
نوں 1
klub 1
##נות 1
families 1
жер 1
papel 1
##에는 1
minutes 1
kawasan 1
less 1
1852 1
Tokyo 1
стала 1
години 1
cause 1
presente 1
currently 1
saveznoj 1
ریاستہائے 1
ռուս 1
##ლი 1
Tim 1
äbinons 1
út 1
dira 1
tên 1
Mexican 1
klima 1
мира 1
پس 1
області 1
kod 1
get 1
##cję 1
gen 1
Norman 1
کہ 1
beberapa 1
3000 1
terra 1
sold 1
ಒಂದು 1
lei 1
##sto 1
cao 1
##iga 1
##vy 1
drama 1
antara 1
تحت 1
alcuni 1
course 1
Manchester 1
фр 1
הם 1
Northern 1
deutscher 1
##న్ 1
##ない 1
##ить 1
##wał 1
энциклопедия 1
nama 1
415 1
3월 1
gave 1
largest 1
##tin 1
stage 1
située 1
##ση 1
cuatro 1
##ije 1
##స్ 1
##sin 1
Magazine 1
Moore 1
features 1
সালে 1
kunne 1
Kevin 1
upon 1
begann 1
Will 1
##ō 1
##కు 1
Федерации 1
Boy 1
kui 1
##ض 1
##적인 1
##ries 1
Deutsche 1
Harper 1
##art 1
mayo 1
ancora 1
##tzen 1
países 1
##ール 1
üçün 1
##ping 1
##का 1
Stanley 1
bekend 1
alto 1
Minor 1
##vos 1
Kalkulado 1
##ಸ್ 1
wilayah 1
Philippe 1
sydöstra 1
170 1
Hotel 1
nouvelle 1
##чна 1
##gia 1
उत्तराखण्ड 1
##мі 1
##J 1
##stand 1
##ших 1
фон 1
आणि 1
شهرستان 1
##ਲ 1
##aria 1
जाता 1
Human 1
italiana 1
##ție 1
État 1
وهو 1
pristupljeno 1
Walker 1
includes 1
##ott 1
خلال 1
##ری 1
Pakistan 1
magazine 1
##վում 1
ebenfalls 1
Middle 1
##jąc 1
obras 1
ani 1
##ningen 1
directed 1
Gabriel 1
både 1
tenía 1
##ست 1
##ità 1
ноября 1
change 1
grad 1
oa 1
भारतया 1
songs 1
seconda 1
FM 1
##dar 1
##သည် 1
Omgivningarna 1
##מי 1
##ラ 1
##ias 1
##ული 1
Death 1
##lta 1
##тер 1
##ص 1
##hus 1
##ா 1
Catholic 1
Численность 1
Hoa 1
Michigan 1
ইউনিয়ন 1
##vin 1
تعداد 1
Director 1
Universal 1
##מות 1
hacia 1
kommun 1
road 1
andra 1
##imo 1
sale 1
##بة 1
##nne 1
ouest 1
sé 1
และ 1
quello 1
sense 1
которых 1
Finland 1
ins 1
alt 1
##ੇ 1
cultura 1
kako 1
Οι 1
##ється 1
statunitense 1
Sports 1
ditu 1
##its 1
điểm 1
quali 1
یکی 1
diferentes 1
designed 1
Burton 1
##či 1
Gary 1
DNA 1
varios 1
##دی 1
##port 1
Bell 1
##ала 1
selbst 1
##ierte 1
##asi 1
しかし 1
neue 1
##гу 1
##ish 1
уже 1
También 1
بخش 1
quelques 1
m² 1
##ста 1
Ze 1
té 1
##ség 1
Small 1
1851 1
text 1
mà 1
##heit 1
ordre 1
##ща 1
ona 1
lange 1
وچ 1
Jane 1
tự 1
Johnny 1
##द 1
103 1
ger 1
months 1
originally 1
issue 1
gol 1
##fen 1
Maurice 1
##dom 1
##house 1
##ню 1
phía 1
1853 1
sol 1
famiglia 1
libro 1
parts 1
##گ 1
1ᵉʳ 1
hebben 1
shows 1
tae 1
##ному 1
ensemble 1
##wie 1
بالإنجليزية 1
Coppa 1
depois 1
##leg 1
7th 1
celle 1
maggio 1
settembre 1
##tore 1
##ios 1
Москва 1
генерал 1
##פה 1
Since 1
##ો 1
مثل 1
##yo 1
Ab 1
Est 1
других 1
vị 1
direction 1
##یی 1
range 1
Beach 1
altra 1
での 1
cách 1
quindi 1
mid 1
mod 1
##ья 1
usa 1
Ռուսաստանի 1
##din 1
##তে 1
##ský 1
grup 1
league 1
##ient 1
##ował 1
##ial 1
format 1
apenas 1
ад 1
katalog 1
Irish 1
cuộc 1
low 1
digunakan 1
##ların 1
##king 1
center 1
Ivan 1
vu 1
tri 1
гг 1
église 1
##tel 1
Hitler 1
барамехь 1
tegen 1
regione 1
década 1
##bile 1
шыв 1
##că 1
último 1
neuen 1
groups 1
climate 1
ги 1
toda 1
Denne 1
seen 1
##čka 1
мәліметтер 1
anderem 1
nova 1
##мы 1
##ली 1
1846 1
sammen 1
Way 1
nhưng 1
giugno 1
Province 1
Kỳ 1
Cross 1
наук 1
Для 1
בית 1
regular 1
đội 1
anterior 1
##tum 1
Vuonna 1
##ñ 1
##erde 1
Arten 1
##liga 1
Giuseppe 1
115 1
roi 1
Light 1
##ови 1
##mia 1
##ší 1
bởi 1
aantal 1
ba 1
followed 1
planet 1
##িক 1
чтобы 1
Venezuela 1
ku 1
##ర్ 1
quanto 1
##ు 1
##tur 1
##lé 1
Centro 1
coach 1
classe 1
##gs 1
Over 1
##ev 1
Johan 1
lập 1
కళాశాల 1
##lon 1
##али 1
##red 1
##ום 1
##ド 1
##ٹ 1
departamento 1
##jes 1
##ngen 1
disse 1
##menti 1
stycznia 1
Norge 1
training 1
phải 1
##ński 1
це 1
##ына 1
Historia 1
##ngan 1
Name 1
septiembre 1
lớn 1
ու 1
##տ 1
Mar 1
##ా 1
vocals 1
##երը 1
denen 1
brother 1
Clark 1
cánh 1
##ности 1
##tori 1
taun 1
орналасқан 1
Mais 1
##یر 1
##зе 1
Josef 1
Fall 1
##τα 1
##か 1
Encyclopædia 1
statt 1
##ров 1
##ğı 1
други 1
годы 1
Suomen 1
1847 1
julio 1
medio 1
gennaio 1
الله 1
light 1
telt 1
seven 1
##ек 1
numero 1
García 1
biztanle 1
##mit 1
##гі 1
##gh 1
1815 1
lado 1
##oval 1
##ू 1
pels 1
##usi 1
episodio 1
completed 1
século 1
âge 1
Although 1
karena 1
Kelly 1
första 1
##lijk 1
double 1
jeden 1
##ría 1
##rak 1
##cal 1
##ستان 1
Alberto 1
##hn 1
##лык 1
##llä 1
dabei 1
##ई 1
##て 1
##zar 1
riktning 1
##like 1
få 1
Milan 1
mientras 1
Meter 1
Loire 1
##ит 1
##ო 1
हे 1
giới 1
lenghe 1
dalle 1
220 1
Marcus 1
Institution 1
##yon 1
111 1
gdje 1
Macmillan 1
Ontario 1
januar 1
uns 1
Jahrhunderts 1
importantes 1
Alpes 1
terme 1
Jesus 1
án 1
Hermann 1
##iz 1
Dance 1
segle 1
थी 1
bad 1
test 1
центр 1
февраля 1
pag 1
lista 1
107 1
108 1
Hamilton 1
##oli 1
часть 1
##vät 1
París 1
size 1
территории 1
zou 1
##gio 1
superior 1
cargo 1
senere 1
mise 1
ISO 1
##ου 1
най 1
##well 1
pedig 1
cinq 1
ante 1
negli 1
Frantziako 1
##ి 1
szerint 1
junio 1
##bau 1
permet 1
featured 1
Сан 1
killed 1
lượng 1
##zeit 1
Popis 1
Ann 1
##ions 1
senza 1
presenta 1
Stand 1
habagatan 1
governo 1
##ības 1
##ція 1
ст 1
luglio 1
ottobre 1
##수 1
##owego 1
sue 1
Billy 1
dir 1
کر 1
истории 1
Mann 1
Wild 1
semi 1
volume 1
ثم 1
cara 1
とは 1
tej 1
##smo 1
panjang 1
nahm 1
##ث 1
usually 1
countries 1
##קה 1
spielte 1
##rik 1
##ê 1
throughout 1
1845 1
daripada 1
##ात 1
##же 1
##ским 1
##tico 1
Năm 1
bod 1
Back 1
##wi 1
Ferdinand 1
desa 1
పాఠశాల 1
père 1
Health 1
##lde 1
Provincia 1
edición 1
360 1
moderne 1
ciutat 1
##oon 1
районе 1
Vietnam 1
bagi 1
verso 1
reported 1
étant 1
Hugo 1
More 1
fikk 1
##ից 1
lokala 1
carrera 1
##يل 1
1842 1
##ec 1
može 1
であった 1
století 1
tidligere 1
phần 1
##ల్ 1
ibabaw 1
Ուկրաինայի 1
Nelson 1
##zio 1
alguns 1
Technology 1
годзе 1
immer 1
Puerto 1
trouve 1
##イ 1
##uit 1
finished 1
Del 1
##ئی 1
page 1
##yan 1
към 1
##ían 1
Philadelphia 1
remained 1
несколько 1
ਸੀ 1
##car 1
Congress 1
Edition 1
##ду 1
død 1
enero 1
ביותר 1
период 1
bằng 1
jonka 1
unos 1
dicembre 1
##اس 1
იყო 1
##скую 1
##eo 1
amihanan 1
##น 1
trở 1
oro 1
Field 1
surface 1
Down 1
membres 1
فہرست 1
cum 1
schools 1
Barbara 1
Fire 1
asli 1
##ades 1
##ನ್ 1
##ವು 1
##ální 1
240 1
leading 1
ਇੱਕ 1
ní 1
players 1
sumala 1
##ture 1
transport 1
Hospital 1
belödanis 1
##П 1
khu 1
según 1
##ове 1
които 1
Britain 1
sotto 1
norsk 1
platsen 1
##ków 1
están 1
above 1
##gel 1
Not 1
kommunen 1
software 1
obyvateľov 1
##נית 1
Studio 1
##idade 1
1844 1
Stuttgart 1
Sul 1
##dem 1
époque 1
ABC 1
ప్రభుత్వ 1
##ği 1
sites 1
Населення 1
DJ 1
byly 1
Nederland 1
това 1
vuoden 1
Alice 1
mondo 1
biasonyo 1
close 1
##wych 1
molt 1
cover 1
##ones 1
##ap 1
đại 1
ещё 1
Dave 1
##xe 1
membre 1
Titel 1
última 1
ainda 1
هم 1
individual 1
##hed 1
wenn 1
college 1
106 1
##miento 1
Moon 1
может 1
##ša 1
geslacht 1
било 1
gas 1
près 1
##uan 1
##adas 1
foar 1
podczas 1
میکند 1
Sri 1
##ων 1
edo 1
Andrea 1
før 1
debido 1
ਤੋਂ 1
##sy 1
either 1
##tud 1
contract 1
período 1
prin 1
##лу 1
##jem 1
kemudian 1
##dade 1
##ule 1
##sky 1
hợp 1
week 1
##shi 1
##mal 1
estos 1
Free 1
više 1
região 1
cả 1
Nick 1
Directory 1
##ին 1
112 1
già 1
##ony 1
##ವಾಗಿ 1
вид 1
höjddata 1
begin 1
président 1
francese 1
love 1
한다 1
Near 1
قد 1
గ్రామానికి 1
##kte 1
sistem 1
SAD 1
##ρ 1
Jazz 1
1814 1
Spain 1
awarded 1
dernier 1
یہ 1
##وی 1
ਹਨ 1
##ében 1
آنها 1
jeung 1
gewann 1
muito 1
##רים 1
##لی 1
##ச் 1
##انی 1
högst 1
elles 1
##ু 1
aircraft 1
1837 1
ellos 1
دیگر 1
drie 1
Jorge 1
##лен 1
век 1
tika 1
##дар 1
aprile 1
адам 1
Vincent 1
##tia 1
でも 1
Leben 1
##ха 1
bay 1
diciembre 1
esa 1
mezi 1
trường 1
##skiego 1
Val 1
##цию 1
कर 1
Dark 1
Während 1
kā 1
128 1
able 1
Lawrence 1
space 1
##ech 1
chez 1
Dat 1
##ult 1
Rudolf 1
simple 1
##stein 1
Në 1
साथ 1
которой 1
még 1
rôle 1
##nden 1
já 1
saat 1
termine 1
##bes 1
tenia 1
##ô 1
##sed 1
##fall 1
1839 1
eight 1
Theater 1
specie 1
phân 1
Jimmy 1
Nederlandse 1
syns 1
Zu 1
##قة 1
##wski 1
Et 1
клуб 1
##kých 1
Adolf 1
département 1
##ців 1
Orthoptera 1
##rse 1
##ının 1
##ение 1
Anton 1
situé 1
chức 1
Med 1
след 1
involved 1
##uto 1
##מו 1
Hun 1
##ał 1
bili 1
##skim 1
##lah 1
ҺӨ 1
1834 1
करने 1
niveau 1
frente 1
About 1
##int 1
Polski 1
kadar 1
Single 1
Sherman 1
hab 1
مربع 1
primordial 1
noviembre 1
1835 1
agua 1
##ches 1
ogni 1
waard 1
##ً 1
день 1
Code 1
##mon 1
Missouri 1
Nobel 1
Baden 1
madre 1
استان 1
región 1
çok 1
esas 1
జిల్లా 1
added 1
הראשון 1
interno 1
##ਾਂ 1
bin 1
federal 1
##rta 1
##وم 1
109 1
##ving 1
least 1
##rk 1
mukaan 1
või 1
Township 1
Charlie 1
pol 1
nuovo 1
Minnesota 1
##dur 1
получил 1
kiradi 1
حسب 1
Eastern 1
##ort 1
##itat 1
estava 1
tamién 1
states 1
##nh 1
много 1
persona 1
##ини 1
##ських 1
урнашкан 1
##주 1
Khan 1
trước 1
##oja 1
Systema 1
eventually 1
நவம்பர் 1
gang 1
wegen 1
اتے 1
كل 1
ek 1
שם 1
Come 1
Barat 1
द्वारा 1
gobierno 1
fram 1
största 1
attack 1
##å 1
pertsona 1
formation 1
##ран 1
1838 1
porque 1
Dead 1
##će 1
##ود 1
Menschen 1
##ось 1
##pes 1
PC 1
استفاده 1
##sing 1
Guy 1
##და 1
میلادی 1
એક 1
който 1
schon 1
135 1
horisonten 1
Jordan 1
12월 1
##bor 1
##nio 1
##લ 1
היו 1
غير 1
नं 1
Era 1
##шы 1
##led 1
Ana 1
listopada 1
##ors 1
##ना 1
##gue 1
related 1
##сі 1
kali 1
##gos 1
めた 1
дека 1
कुल 1
című 1
Blues 1
điều 1
už 1
metres 1
gồm 1
Jonathan 1
trung 1
Later 1
nivel 1
##film 1
especies 1
##ères 1
giiniton 1
storia 1
نسبة 1
##ming 1
##tle 1
habitatges 1
Porto 1
##ová 1
artist 1
Ten 1
თარიღი 1
artean 1
Junior 1
kinabugnawan 1
kinainitan 1
##су 1
kwam 1
##dre 1
Pape 1
##ab 1
##nice 1
Mas 1
Conference 1
hội 1
gehörte 1
tarkibiga 1
##èt 1
би 1
plant 1
##ো 1
Boys 1
##kov 1
Ook 1
godina 1
1843 1
Donald 1
##kas 1
##나 1
##сон 1
##nna 1
яка 1
Nicolas 1
anak 1
##rice 1
अभिगमन 1
մարդ 1
##ак 1
đoàn 1
jü 1
אל 1
кои 1
gibi 1
regional 1
degree 1
##ಲ್ 1
##ット 1
యొక్క 1
##ár 1
##ance 1
Trong 1
##ες 1
##ク 1
4월 1
opštini 1
Ryan 1
نسخة 1
նաև 1
kota 1
student 1
എന്ന 1
లేదు 1
##bin 1
կայքում 1
při 1
##ių 1
##ách 1
replaced 1
წაკითხვის 1
cases 1
##ай 1
κατά 1
##ший 1
jaren 1
Management 1
είχε 1
rằng 1
muerte 1
września 1
##eti 1
provided 1
ویکیپیڈیا 1
Jacob 1
rok 1
##אי 1
svoje 1
##nder 1
##خ 1
tích 1
1831 1
##чу 1
huet 1
##тов 1
grupos 1
rue 1
##تر 1
existe 1
marinespecies 1
após 1
которая 1
unit 1
wis 1
Amt 1
sondern 1
genannt 1
Course 1
Río 1
Gruppe 1
Duke 1
одного 1
##iske 1
др 1
untuak 1
centrale 1
##రు 1
##مة 1
sta 1
##iche 1
jossa 1
##sal 1
medal 1
Según 1
など 1
SIMBAD 1
eau 1
pösods 1
Sürfat 1
läs 1
otra 1
##ər 1
см 1
winning 1
vice 1
छगू 1
kraju 1
erstmals 1
Tod 1
Sarah 1
chủ 1
Asteroid 1
##ból 1
sera 1
כמו 1
casi 1
##tó 1
##aire 1
proti 1
Channel 1
##wany 1
byen 1
Ele 1
Magyar 1
étaient 1
Indiana 1
prvi 1
titolo 1
self 1
##צה 1
hos 1
Desde 1
fünf 1
revista 1
کشور 1
Terra 1
##cho 1
jezik 1
##سی 1
##وس 1
cơ 1
##чен 1
##್ 1
Ian 1
##ати 1
independent 1
Tropical 1
goal 1
##pp 1
też 1
##ized 1
1812 1
thường 1
trình 1
1836 1
Dette 1
editor 1
своей 1
echter 1
##rit 1
##ül 1
ul 1
##wej 1
##ow 1
область 1
nieuwe 1
##정 1
1644 1
producer 1
Levy 1
dones 1
##ила 1
роль 1
vista 1
nature 1
खने 1
presso 1
га 1
##전 1
gjennom 1
Reino 1
certain 1
több 1
competition 1
1841 1
star 1
##од 1
normal 1
estar 1
117 1
Maydoni 1
группы 1
##dorf 1
Stadium 1
hänen 1
går 1
участие 1
έχει 1
planta 1
nhận 1
kommune 1
zde 1
internacional 1
anu 1
времени 1
Franco 1
sidlakan 1
##kim 1
Winter 1
##var 1
algunos 1
10월 1
##డు 1
##maan 1
##ovi 1
होता 1
aphia 1
taxdetails 1
##ун 1
giải 1
Museo 1
##יר 1
##שה 1
##ić 1
Bruno 1
190 1
deuxième 1
##over 1
Harris 1
studies 1
praefecturae 1
Rosa 1
grote 1
western 1
став 1
రహదారి 1
##ийн 1
isə 1
compte 1
##vad 1
França 1
Com 1
なお 1
##ара 1
too 1
squadra 1
Keith 1
##amento 1
##ције 1
##ец 1
mediana 1
Ross 1
rights 1
امریکا 1
##jski 1
otro 1
atas 1
##ční 1
Greenwood 1
##lat 1
León 1
camp 1
सन् 1
sulod 1
René 1
einige 1
որը 1
gehört 1
clubs 1
தமிழ்நாடு 1
1600 1
Các 1
future 1
zoals 1
##ként 1
siden 1
seme 1
sabuah 1
##ző 1
450 1
ver 1
entonces 1
ਤੇ 1
ensuite 1
##تی 1
##az 1
Gesellschaft 1
##аў 1
##ania 1
##ਤ 1
##ým 1
Chief 1
экология 1
lên 1
##לים 1
##ことが 1
Kansas 1
etapa 1
える 1
fort 1
Atlantic 1
##py 1
previous 1
##لة 1
7월 1
Harvard 1
little 1
##uma 1
Railway 1
##цев 1
mao 1
כאשר 1
estilo 1
1832 1
Girls 1
##kého 1
##দের 1
Apollo 1
##hr 1
##명 1
1833 1
које 1
tweede 1
female 1
Pays 1
##ská 1
Brazil 1
samme 1
etxebizitza 1
systems 1
##elt 1
##ден 1
їх 1
##logia 1
Four 1
Landkreis 1
insieme 1
1820 1
End 1
ancien 1
##ји 1
##ario 1
estadounidense 1
Germania 1
Frau 1
či 1
febbraio 1
تاریخ 1
MTV 1
Third 1
oma 1
בו 1
नहीं 1
##לי 1
##ення 1
##чних 1
##čke 1
Jason 1
Haus 1
Timur 1
Teatro 1
3rd 1
Polsce 1
Andy 1
uk 1
hele 1
thống 1
##цу 1
sẽ 1
##ute 1
Estadística 1
Benjamin 1
gmina 1
Renaissance 1
##bio 1
febrero 1
##llen 1
##vanje 1
આવેલા 1
##eno 1
trat 1
qiladi 1
##нд 1
##ef 1
đêm 1
##sus 1
##pis 1
אחד 1
##ակ 1
##wo 1
wel 1
Head 1
##eu 1
##ത്തിൽ 1
oltre 1
##ires 1
Gwefan 1
Opera 1
Salvador 1
##き 1
Ils 1
Machine 1
iar 1
Kabupaten 1
Segunda 1
environ 1
بعض 1
مشارکین 1
##А 1
##чы 1
لم 1
indrindra 1
phố 1
##ře 1
##ί 1
двух 1
##되어 1
novo 1
##ischer 1
anul 1
##У 1
tempat 1
Herbert 1
zbog 1
rather 1
הברית 1
Baker 1
##schaft 1
##から 1
pay 1
তার 1
És 1
provide 1
Islands 1
kecamatan 1
port 1
Oliver 1
scène 1
publication 1
##или 1
whose 1
rol 1
nombreux 1
##вали 1
##ats 1
Leo 1
tien 1
kết 1
Fred 1
230 1
##ym 1
pdf 1
1793 1
ще 1
##эн 1
рік 1
đi 1
##ase 1
##čne 1
##ped 1
Sierra 1
Asian 1
Scotland 1
αλλά 1
night 1
kleine 1
nummer 1
placed 1
затем 1
##och 1
##ої 1
canal 1
мемлекеттік 1
ground 1
sản 1
Алматы 1
dues 1
राज्य 1
Mac 1
fourth 1
توسط 1
toute 1
largo 1
við 1
##した 1
digital 1
Erik 1
##ća 1
Form 1
Graham 1
ему 1
minister 1
##ən 1
городских 1
має 1
direct 1
manager 1
ayant 1
Kreis 1
don 1
gjorde 1
##च 1
genom 1
ag 1
además 1
Lincoln 1
Sein 1
##aux 1
jour 1
tiếp 1
Collins 1
##ций 1
versión 1
generale 1
عشر 1
##ческой 1
Adams 1
bass 1
bilan 1
forte 1
9월 1
член 1
Александр 1
##ата 1
namn 1
code 1
river 1
fatto 1
bezeichnet 1
123 1
##တွင် 1
seines 1
první 1
déi 1
października 1
udalerrian 1
Matt 1
But 1
114 1
##skog 1
میباشد 1
Wright 1
##ics 1
label 1
czerwca 1
Songs 1
##아 1
Hy 1
にある 1
##ward 1
всех 1
113 1
##цыі 1
ami 1
##zó 1
##dio 1
grudnia 1
hoặc 1
##weg 1
##rii 1
tog 1
##ней 1
success 1
##ந்த 1
##ța 1
health 1
Republik 1
##кий 1
kimi 1
##ნის 1
яких 1
##ол 1
ISSN 1
owned 1
Body 1
##സ് 1
nueva 1
três 1
Prize 1
quattro 1
##umi 1
له 1
##ned 1
##적으로 1
oan 1
sú 1
##xo 1
##gal 1
##íu 1
carrière 1
HMS 1
review 1
loại 1
mission 1
Tag 1
author 1
##ік 1
##лись 1
introduced 1
ever 1
##oma 1
1821 1
Sekolah 1
##گاه 1
upp 1
ran 1
arts 1
americano 1
بھی 1
##wer 1
##rà 1
вместе 1
Після 1
750 1
##ük 1
##hl 1
corpo 1
Fu 1
##ento 1
erst 1
محفوظة 1
##logie 1
##ški 1
densidad 1
ուկր 1
Castle 1
مدينة 1
diesen 1
stated 1
tienen 1
էին 1
porte 1
seis 1
себе 1
Baby 1
ενώ 1
rund 1
##ე 1
taona 1
##нт 1
##lles 1
Champion 1
Dipterorum 1
##ása 1
mois 1
Partido 1
##פות 1
Justice 1
reached 1
млн 1
Pháp 1
orbit 1
sedan 1
##ides 1
Nazionale 1
dr 1
116 1
Libraries 1
după 1
##lte 1
Arizona 1
##ность 1
Another 1
će 1
bisa 1
Welt 1
tế 1
##ând 1
februar 1
norra 1
##தி 1
##ह 1
Colorado 1
saw 1
##gy 1
Efter 1
##מת 1
Just 1
##ое 1
siguiente 1
Jewish 1
División 1
Now 1
almost 1
movement 1
artista 1
führte 1
Regiment 1
составляет 1
espèce 1
gebied 1
Palgrave 1
210 1
Frederick 1
Morgan 1
aasta 1
sống 1
##skih 1
##ets 1
##성 1
legal 1
##bal 1
Gustav 1
број 1
tallet 1
Let 1
##ır 1
##isten 1
agli 1
rehiyon 1
وهي 1
management 1
Sainte 1
находится 1
##פים 1
petit 1
behind 1
southern 1
Dalam 1
Musik 1
troch 1
Today 1
Morris 1
5월 1
units 1
качестве 1
##kog 1
Revolution 1
##ников 1
letzten 1
الولايات 1
mempunyai 1
##ક 1
basis 1
osób 1
Liste 1
network 1
också 1
Historical 1
##нето 1
##њу 1
Robin 1
##dus 1
##igt 1
skal 1
maakt 1
chiesa 1
##ёт 1
מספר 1
Charlotte 1
Studios 1
jordbruksmark 1
proprio 1
zegoen 1
Selected 1
neben 1
UNESCO 1
##구 1
فیلم 1
##λ 1
Pablo 1
Bayern 1
##وب 1
sve 1
##ते 1
##лся 1
##בה 1
1월 1
później 1
##dig 1
Guinea 1
##ਣ 1
Object 1
große 1
нем 1
ਨੇ 1
costa 1
Apple 1
complex 1
Jeff 1
кој 1
lực 1
nagy 1
beide 1
Santos 1
##inin 1
##ður 1
Cuba 1
Gallery 1
##sme 1
##rde 1
egyik 1
quasi 1
obce 1
scored 1
1200 1
Express 1
cantante 1
жизни 1
cel 1
כך 1
##нии 1
Straße 1
##und 1
экз 1
Many 1
వ్యవస్థ 1
##ského 1
epi 1
Corps 1
##ż 1
Wang 1
##hausen 1
Daily 1
6월 1
##жа 1
mat 1
dieses 1
раз 1
Rusia 1
##iai 1
König 1
անգլ 1
CIA 1
Edwards 1
Championships 1
Christmas 1
Contemporary 1
faritr 1
Luigi 1
##jú 1
decided 1
Danmark 1
##sz 1
վրա 1
निसें 1
##ament 1
steht 1
##۰ 1
તેમ 1
##्या 1
3D 1
profesor 1
1825 1
length 1
pak 1
##ities 1
Kilometer 1
hui 1
municipality 1
8월 1
Mars 1
одним 1
інших 1
parents 1
##рі 1
biasanya 1
feet 1
उत्तर 1
##pin 1
##נת 1
diễn 1
tinha 1
##ά 1
besteht 1
##ació 1
période 1
influence 1
tale 1
Remix 1
ship 1
souvent 1
lipca 1
oldu 1
market 1
Fritz 1
conditions 1
Dream 1
##یا 1
großen 1
права 1
södra 1
zweiten 1
1700 1
campaign 1
във 1
তারিখ 1
Raymond 1
brought 1
##ání 1
##غ 1
successful 1
commercial 1
##wane 1
rest 1
jeu 1
northern 1
Andreas 1
Paolo 1
Kiba 1
ob 1
Ces 1
Survey 1
##라 1
##кан 1
##า 1
##ול 1
##သော 1
Medal 1
##ță 1
custodian 1
João 1
среди 1
provincie 1
##sar 1
island 1
##ница 1
##lang 1
Vilnius 1
людей 1
meses 1
##군 1
canción 1
duas 1
tutto 1
doit 1
Arab 1
##ця 1
need 1
produce 1
இது 1
##fica 1
##ель 1
sierpnia 1
abitanti 1
Stati 1
soll 1
Doctor 1
reste 1
principales 1
సరఫరా 1
افراد 1
mans 1
county 1
ის 1
approximately 1
Age 1
público 1
##jų 1
οποία 1
##ča 1
tournament 1
luego 1
##ord 1
##ət 1
##aa 1
وكان 1
udalerri 1
##ლ 1
1829 1
Stefan 1
Durch 1
tetapi 1
שלו 1
##tiva 1
Đại 1
##ม 1
így 1
##ª 1
##sie 1
ole 1
Praha 1
kW 1
armée 1
##ज 1
##stan 1
##any 1
male 1
sector 1
121 1
ktorá 1
##το 1
AS 1
##ß 1
##kon 1
Meksiko 1
industry 1
Bridge 1
instead 1
##gne 1
Papa 1
gọi 1
stati 1
Sound 1
enpresa 1
Par 1
однако 1
5000 1
##ip 1
##dən 1
Cultural 1
turno 1
Champions 1
##dis 1
THE 1
##شت 1
1828 1
our 1
כדי 1
Captain 1
001 1
Ett 1
##ө 1
Place 1
altro 1
1806 1
##czne 1
##కి 1
mehrere 1
Bakı 1
popisu 1
##িত 1
11월 1
##פת 1
##kal 1
elements 1
стали 1
results 1
##sion 1
required 1
##jā 1
##kus 1
##רי 1
Orchestra 1
elevation 1
Memorial 1
aholi 1
Pietro 1
previously 1
político 1
czasie 1
##mat 1
##wyd 1
noin 1
##cida 1
122 1
calciatore 1
deutsche 1
américain 1
##ес 1
ua 1
##pu 1
especially 1
dagat 1
Stewart 1
diện 1
##דה 1
##gus 1
дел 1
Coast 1
##ತ 1
ihrem 1
ruolo 1
##jar 1
Amerikaanse 1
کیلومتر 1
##cer 1
##ன 1
Perancis 1
rapport 1
nyaéta 1
Laura 1
##দ 1
edificio 1
##bil 1
##out 1
118 1
город 1
род 1
##non 1
##teur 1
2월 1
LP 1
lý 1
Gemeinden 1
varias 1
##mm 1
Euro 1
figure 1
##cje 1
Sultan 1
##ction 1
traditional 1
##dı 1
Gray 1
هر 1
lalawigan 1
складу 1
feat 1
цього 1
##یل 1
Get 1
Đức 1
лат 1
राज्यया 1
below 1
##ος 1
##ának 1
hatten 1
##০ 1
Однако 1
Coupe 1
Their 1
internationale 1
report 1
jazz 1
outside 1
writer 1
সংগ্রহের 1
campionato 1
дорад 1
##endo 1
Anfang 1
Обь 1
##քի 1
быў 1
Pop 1
##მა 1
Angel 1
##σαν 1
Steven 1
Санкт 1
گیا 1
basa 1
Muhammad 1
means 1
##み 1
Bishop 1
##èrent 1
аст 1
mayoría 1
Wrestling 1
которого 1
##esi 1
organization 1
##த்து 1
listed 1
olivat 1
itself 1
originale 1
Indonésia 1
Garden 1
міста 1
127 1
corps 1
##하게 1
##nju 1
ਇਸ 1
أكثر 1
honor 1
Ez 1
đối 1
##ются 1
behoort 1
lived 1
serta 1
Nella 1
Grant 1
Ao 1
##nel 1
##ib 1
deres 1
sometimes 1
svensk 1
kunnen 1
имени 1
##ät 1
##ical 1
##ande 1
menor 1
były 1
Société 1
było 1
есть 1
veces 1
outras 1
##ნი 1
Miami 1
primary 1
gouvernement 1
olduğu 1
Woman 1
быть 1
близько 1
arbeitete 1
জন্য 1
engelsk 1
Projektu 1
writing 1
##כה 1
менән 1
Kr 1
##eli 1
između 1
UCB 1
interest 1
##stvo 1
##० 1
voe 1
seves 1
musique 1
então 1
کیا 1
بلغ 1
Bull 1
##tivo 1
##부터 1
##lie 1
aki 1
##という 1
##ському 1
বা 1
##nal 1
única 1
departament 1
afin 1
YouTube 1
Forest 1
locuitori 1
Berg 1
kwietnia 1
##ione 1
##ró 1
rata 1
Rafael 1
dok 1
району 1
##ത് 1
która 1
Official 1
մասին 1
Folge 1
Route 1
liste 1
Бассейн 1
bit 1
nhiên 1
Jerry 1
seat 1
##یه 1
champion 1
така 1
östra 1
Republike 1
Dutch 1
Dom 1
changed 1
attended 1
istiqomat 1
fand 1
ইংরেজি 1
##ži 1
##ээ 1
Water 1
##pel 1
score 1
Marshall 1
##었다 1
drugi 1
figura 1
obec 1
GovPubs 1
##זה 1
Play 1
SM 1
##mba 1
periode 1
Collection 1
donne 1
torneo 1
Silva 1
##inde 1
amely 1
Catalunya 1
ultimo 1
plays 1
award 1
אותו 1
oeste 1
López 1
##ే 1
##제 1
nye 1
Design 1
Arnold 1
continue 1
Haute 1
ih 1
되었다 1
significa 1
tính 1
مارس 1
bizi 1
რომელიც 1
όπως 1
invece 1
ГӨ 1
minor 1
Sons 1
femme 1
Jon 1
##yer 1
EU 1
##כת 1
ул 1
##aja 1
vilket 1
##ude 1
FAQ 1
eeuw 1
##ева 1
jadi 1
##nk 1
##ρα 1
anglais 1
Mix 1
##хь 1
##च्या 1
train 1
Airlines 1
alebo 1
västra 1
##czy 1
buildings 1
đường 1
##erung 1
переписи 1
enn 1
##dat 1
##ಕ್ಕೆ 1
Pas 1
##овой 1
past 1
Gli 1
tạo 1
Melbourne 1
##ники 1
libre 1
##בר 1
##ologie 1
està 1
vụ 1
str 1
##jer 1
##ை 1
1802 1
##sos 1
teatro 1
bướm 1
थे 1
sollte 1
finales 1
cola 1
tuli 1
Dame 1
##има 1
bland 1
Tây 1
studierte 1
армии 1
épisode 1
Primera 1
ayisyen 1
död 1
126 1
במהלך 1
Area 1
аб 1
Kennedy 1
سن 1
vì 1
theory 1
##تا 1
Presidente 1
##ného 1
##eurs 1
museum 1
तिथि 1
Einwohner 1
toujours 1
##nici 1
mình 1
1824 1
Extragalactic 1
##य् 1
blant 1
dog 1
lingua 1
##pia 1
trova 1
بودهاست 1
González 1
conquest 1
ofte 1
senior 1
stal 1
allerdings 1
featuring 1
hizo 1
##ਮ 1
Geiger 1
issues 1
aller 1
##лер 1
Warner 1
Springer 1
اما 1
##chten 1
população 1
числе 1
280 1
find 1
Standard 1
145 1
##ає 1
soon 1
##ška 1
θα 1
kuin 1
mètres 1
nᵒ 1
##keit 1
##əsi 1
Sommer 1
Chart 1
##լ 1
роках 1
complete 1
মানুলেহা 1
##യിൽ 1
Poland 1
chaque 1
fjärilsart 1
Avenue 1
##hip 1
especial 1
geboren 1
##ದಲ್ಲಿ 1
1789 1
руск 1
그는 1
château 1
чи 1
##ein 1
1813 1
##erne 1
paper 1
##ക 1
Stars 1
Academia 1
nou 1
себя 1
уггаре 1
Köppen 1
##lly 1
view 1
Meksika 1
##ндә 1
##ual 1
होते 1
Wisconsin 1
1826 1
##پ 1
significant 1
runs 1
данным 1
##town 1
jours 1
Murray 1
Assembly 1
Monitoring 1
money 1
tijdens 1
##ոն 1
##אל 1
sólo 1
sport 1
Antoine 1
##ém 1
##gon 1
##worth 1
bronze 1
##zet 1
1818 1
яке 1
Uniti 1
AG 1
board 1
bang 1
##ndi 1
Families 1
##რი 1
administration 1
##tua 1
Lucas 1
124 1
آبادی 1
##ո 1
##ву 1
260 1
hommes 1
ieu 1
Arena 1
Olympic 1
porta 1
mes 1
ప్రాథమిక 1
singer 1
Larva 1
estas 1
đánh 1
INSEEren 1
##до 1
Gebiet 1
119 1
##our 1
tracks 1
Etter 1
beginning 1
##ён 1
##ос 1
Wolf 1
##ив 1
##ப்பு 1
մեջ 1
##ნ 1
opening 1
tác 1
army 1
names 1
dapek 1
Lyon 1
higher 1
problema 1
hemiboreala 1
いた 1
деревня 1
powiecie 1
րդ 1
##ვა 1
laut 1
Bij 1
tenien 1
quyền 1
miasta 1
між 1
summer 1
Alle 1
সাক্ষরতার 1
Peel 1
##joje 1
Lost 1
##ã 1
##О 1
Franklin 1
thì 1
##Р 1
واي 1
##log 1
pelos 1
Alexandre 1
##rato 1
arrondissement 1
días 1
Tengah 1
Margaret 1
##τη 1
Canal 1
##rata 1
Comets 1
bắt 1
running 1
Born 1
155 1
август 1
Geografía 1
باك 1
##borg 1
Norden 1
ji 1
hanya 1
thông 1
hàng 1
края 1
Fame 1
azonban 1
человека 1
городе 1
kuitenkin 1
складі 1
##ttiin 1
##ことを 1
לו 1
fall 1
##bili 1
setelah 1
##ела 1
##вала 1
Carter 1
child 1
baru 1
##ких 1
Police 1
##stva 1
mellan 1
##ται 1
##čių 1
Kinder 1
Classification 1
defeated 1
Sony 1
##ック 1
association 1
##ular 1
δύο 1
wide 1
##க்கு 1
pesar 1
auteur 1
##rios 1
Municipal 1
##ческих 1
according 1
##bert 1
##ain 1
evante 1
zij 1
Mal 1
problem 1
WWE 1
этой 1
Mitte 1
generally 1
Sen 1
Köln 1
taking 1
##eva 1
##time 1
Mei 1
##чного 1
##ema 1
give 1
Tavakilian 1
gebruikt 1
strong 1
valor 1
towards 1
##ology 1
chúng 1
eru 1
ից 1
trabajo 1
175 1
Departement 1
##side 1
whom 1
##ène 1
##бе 1
associated 1
##히 1
##esa 1
হারহান 1
##eko 1
büyük 1
##rek 1
##чных 1
##pat 1
ned 1
seizoen 1
Updated 1
muun 1
Barry 1
bar 1
ملی 1
millions 1
Vladimir 1
1016 1
##ул 1
outubro 1
gold 1
част 1
##yen 1
Иван 1
AC 1
1790 1
highest 1
cứng 1
##ಗಳಲ್ಲಿ 1
SC 1
industrial 1
##owania 1
##nske 1
hospital 1
amor 1
مشين 1
Phil 1
með 1
bezocht 1
##են 1
годов 1
NHL 1
setembro 1
intentions 1
Julie 1
مرکز 1
대한 1
ahol 1
maio 1
Эвла 1
Peru 1
combat 1
questi 1
##nga 1
allowed 1
charge 1
##вав 1
lower 1
eli 1
scene 1
Matthew 1
osa 1
image 1
muassa 1
Campbell 1
goals 1
##ales 1
vanaf 1
corso 1
##rdi 1
tij 1
Helsinki 1
##nge 1
alte 1
##گی 1
ingkang 1
origen 1
##stä 1
کار 1
##प 1
##ർ 1
において 1
Kurt 1
##ார் 1
temperatura 1
##mt 1
practice 1
plans 1
##lığı 1
##ав 1
իսկ 1
fiind 1
##ným 1
USS 1
género 1
##ที่ 1
sports 1
Dal 1
##ists 1
poden 1
mezvalora 1
##cat 1
vlinder 1
##tiin 1
Franse 1
outcomes 1
location 1
tijd 1
części 1
primi 1
тӀуьна 1
##θεί 1
##oda 1
##вы 1
pubblicato 1
unique 1
effet 1
Asteroids 1
##ア 1
##화 1
sĩ 1
mediante 1
##քը 1
Dies 1
##த்தில் 1
Ресей 1
##bat 1
##ать 1
prix 1
##eth 1
Nakon 1
##ost 1
engine 1
tuig 1
##ങ്ങൾ 1
##কে 1
##ून 1
income 1
##ím 1
Warren 1
##ового 1
Here 1
Rhône 1
Cover 1
ktorý 1
める 1
encara 1
##sé 1
##тор 1
auto 1
matches 1
ibn 1
##ี 1
бу 1
##ও 1
आदि 1
Page 1
tarixi 1
Savannklimat 1
Children 1
groot 1
##цца 1
totale 1
railway 1
Holland 1
##ља 1
Brothers 1
всего 1
##τικό 1
ktoré 1
esto 1
בן 1
しい 1
JPL 1
##وية 1
pred 1
##նում 1
##ndan 1
contains 1
##inger 1
Vascular 1
##ller 1
Aus 1
##ас 1
となり 1
1801 1
gegründet 1
hingga 1
heavy 1
weiter 1
##mé 1
woman 1
همچنین 1
food 1
270 1
என்ற 1
millones 1
esse 1
##ac 1
Selatan 1
Bevölkerung 1
##zed 1
hệ 1
##cı 1
Synonymic 1
زبان 1
access 1
Wood 1
ATP 1
Following 1
oblasti 1
1816 1
##cies 1
##्र 1
better 1
bao 1
kreeg 1
##gé 1
##ði 1
trị 1
puntos 1
1일 1
##tir 1
global 1
Abu 1
##mine 1
1822 1
##gd 1
129 1
PlayStation 1
##els 1
Turner 1
Quando 1
Unternehmen 1
##mek 1
wobei 1
rate 1
mejor 1
své 1
이후 1
##rant 1
finalmente 1
resto 1
##ब 1
egin 1
lutego 1
nous 1
toutes 1
operations 1
##oje 1
cü 1
##лов 1
##iera 1
アメリカ 1
##гы 1
Medical 1
##حة 1
などの 1
али 1
##ures 1
##ador 1
##yle 1
hari 1
##kę 1
131 1
Madonna 1
enfants 1
##istes 1
Liverpool 1
especialmente 1
##ာ 1
movie 1
rural 1
property 1
##까지 1
##нов 1
##ു 1
132 1
##ža 1
##har 1
gebruik 1
Amor 1
##cis 1
poeta 1
##일 1
144 1
biển 1
##യ 1
wojny 1
##cas 1
OS 1
Metal 1
##ели 1
administrative 1
Evans 1
troba 1
mesma 1
mieszkańców 1
##ती 1
##лення 1
նա 1
##ಣ 1
##цію 1
nommé 1
phim 1
##tter 1
hace 1
יש 1
articles 1
mode 1
keversoort 1
sí 1
inoltre 1
Iowa 1
##lık 1
##gte 1
Plan 1
##lands 1
##iendo 1
##ก 1
ended 1
só 1
##iana 1
##azione 1
Racing 1
মারি 1
papa 1
##ың 1
tok 1
##ør 1
##ै 1
Fernández 1
closed 1
figlio 1
##ог 1
##bt 1
key 1
1819 1
##یم 1
работы 1
##רות 1
ministre 1
thus 1
##etan 1
coma 1
##hal 1
Denis 1
##niu 1
Müller 1
système 1
cinema 1
capita 1
##ué 1
##ому 1
##iska 1
##ijos 1
Мн 1
Our 1
Astronomical 1
études 1
Roberts 1
1º 1
norske 1
##선 1
##ieren 1
1827 1
каталог 1
Marcel 1
##וב 1
distribution 1
blandskog 1
हिन्दी 1
metro 1
бо 1
ஆம் 1
tamén 1
Ar 1
##mie 1
начале 1
##esta 1
##ndə 1
fille 1
районов 1
##itas 1
##ence 1
Tennessee 1
можно 1
địa 1
oft 1
##uda 1
Archived 1
Statistics 1
hold 1
Владимир 1
توں 1
Durant 1
پاکستان 1
vực 1
##ńskiego 1
Java 1
dazu 1
droit 1
##э 1
##kai 1
страна 1
##ট 1
effect 1
##tina 1
Bis 1
personnes 1
amerikansk 1
##ّ 1
##თა 1
##nier 1
##vit 1
œuvre 1
Pictures 1
կողմից 1
Pauly 1
distance 1
школа 1
##aka 1
صورت 1
Beccaloni 1
##τ 1
##jet 1
##ää 1
Television 1
euro 1
još 1
JR 1
##ений 1
Mỹ 1
prend 1
selv 1
##ური 1
omdat 1
##bie 1
134 1
Wayne 1
##nut 1
sex 1
menggunakan 1
Houston 1
Dia 1
Community 1
dunia 1
##որ 1
Zur 1
ఆరోగ్య 1
##kor 1
Jay 1
bersama 1
liga 1
##اف 1
1758 1
##ీ 1
##щ 1
##ію 1
erfolgte 1
additional 1
तक्क 1
##ric 1
spent 1
छ्येलिगु 1
##mp 1
##vio 1
noted 1
loss 1
move 1
##čki 1
TRMM 1
##մ 1
lần 1
új 1
##logy 1
matag 1
kinabasaan 1
situation 1
kinaugahan 1
novembro 1
같은 1
société 1
152 1
stations 1
##uh 1
שני 1
sina 1
Это 1
Checklists 1
зі 1
##rad 1
jeune 1
মা 1
viele 1
energy 1
20th 1
Louise 1
##ciu 1
1792 1
Gilbert 1
деп 1
Early 1
hijo 1
insect 1
своего 1
tanàna 1
tätig 1
ligt 1
##ления 1
VM 1
##tí 1
సామాజిక 1
##essa 1
##치 1
##진 1
##larda 1
tvåvingeart 1
Tras 1
jedan 1
##ん 1
ಹಾಗೂ 1
##である 1
mostra 1
##кого 1
Fra 1
Deeds 1
##ність 1
##owym 1
Universidade 1
fact 1
##פי 1
##atan 1
conocido 1
Cape 1
ch 1
##ება 1
Seite 1
fyrir 1
##ků 1
ஆகும் 1
ਨਾਲ 1
##ының 1
mjesto 1
mới 1
Қазақ 1
##idos 1
logo 1
mateix 1
Dean 1
чем 1
##yd 1
##ு 1
Pan 1
Highway 1
система 1
diverses 1
133 1
##back 1
Provinsi 1
giáo 1
##ич 1
2014년 1
Lima 1
quals 1
оны 1
##ત 1
retired 1
##cks 1
eastern 1
##cido 1
##usa 1
único 1
##களை 1
premiers 1
##Б 1
Vater 1
часто 1
##TV 1
##eni 1
склад 1
famous 1
província 1
igual 1
##vić 1
protein 1
folk 1
1817 1
##aba 1
##ками 1
Spring 1
tener 1
tới 1
ради 1
ఇది 1
Julius 1
##ských 1
##кс 1
khoảng 1
miejscowość 1
parties 1
Catalog 1
Popular 1
lite 1
Stuart 1
evidence 1
серед 1
peuvent 1
##کی 1
Kirkwood 1
##მ 1
Brookings 1
Delhi 1
batang 1
següent 1
bọ 1
سكانها 1
भारतीय 1
##ある 1
Bau 1
ingen 1
##rı 1
Lalek 1
перед 1
ఉన్న 1
Hockey 1
cet 1
##tig 1
##וס 1
##льных 1
##ración 1
alcune 1
Only 1
##ват 1
Eva 1
адамды 1
Moscow 1
today 1
##стве 1
##қа 1
basen 1
##را 1
Allan 1
Pitkin 1
##rade 1
Marina 1
Zweiten 1
thủ 1
seria 1
older 1
battle 1
Castro 1
##bahn 1
##kiego 1
##owany 1
аьхка 1
##льного 1
computer 1
##бы 1
##ら 1
##cki 1
projet 1
##ান 1
Broadway 1
Zagreb 1
protagonista 1
##ích 1
##wania 1
Afghanistan 1
##rede 1
##동 1
ہو 1
##ними 1
##rado 1
Lorenzo 1
kommt 1
##간 1
##rium 1
Parker 1
Chr 1
filmu 1
dintre 1
sechs 1
records 1
око 1
sexe 1
первый 1
przed 1
apud 1
##lsen 1
adalwyd 1
dansk 1
##ings 1
Temple 1
ага 1
podjela 1
Schweiz 1
там 1
եւ 1
livre 1
құрайды 1
##wana 1
batalla 1
##ności 1
ana 1
casos 1
Record 1
Araneae 1
##യുടെ 1
##ము 1
която 1
##דות 1
136 1
##களில் 1
церкви 1
##gin 1
producción 1
##く 1
daar 1
##ே 1
##larında 1
छगु 1
Mrs 1
største 1
##ged 1
misma 1
orden 1
1808 1
боюнча 1
Yang 1
máy 1
represented 1
kon 1
1809 1
create 1
pueblo 1
demi 1
##kos 1
Austin 1
##nant 1
##itz 1
cost 1
launched 1
2012년 1
Blood 1
اهل 1
##cción 1
жылғы 1
Türkiye 1
kahaboga 1
Украины 1
Według 1
ambos 1
mesto 1
Hulyo 1
cele 1
Om 1
fir 1
companies 1
बाद 1
tập 1
##्स 1
attività 1
Scoble 1
##ロ 1
terms 1
sino 1
CBS 1
particolare 1
Earl 1
Polen 1
Scottish 1
matoari 1
Perennial 1
animal 1
##čna 1
העיר 1
edhe 1
##zat 1
cosa 1
Hills 1
Cooper 1
Об 1
Deep 1
##వ 1
ткъа 1
sv 1
конце 1
grado 1
Alto 1
##ныя 1
rundt 1
Valencia 1
România 1
##ஸ் 1
font 1
##nger 1
earlier 1
##ओं 1
Political 1
trade 1
Jana 1
dek 1
primeros 1
##כים 1
##ün 1
##دي 1
մի 1
biti 1
կամ 1
Hrsg 1
voir 1
320 1
bağlı 1
cast 1
turn 1
##iko 1
##том 1
vote 1
staff 1
cấp 1
smrti 1
lahir 1
сайты 1
##ına 1
tylko 1
LepIndex 1
lagu 1
##enia 1
Қазақстан 1
internet 1
cha 1
связи 1
ಎಂದು 1
##ને 1
Krauze 1
זאת 1
##lijke 1
rất 1
река 1
137 1
territoire 1
2016년 1
Years 1
Engineering 1
Systems 1
vain 1
Bắc 1
##նի 1
thought 1
poste 1
1795 1
welche 1
rey 1
##ator 1
имеет 1
nes 1
Bach 1
ollut 1
Duitse 1
##おり 1
##ame 1
mana 1
##ян 1
այն 1
пунктов 1
##adi 1
Federation 1
особи 1
albums 1
аьхке 1
##вал 1
agent 1
hann 1
militaire 1
Zone 1
##icos 1
##lerin 1
Administrativna 1
HD 1
1803 1
##icu 1
2011년 1
##num 1
Bot 1
##скага 1
##vre 1
##all 1
św 1
Allemagne 1
##ós 1
##ont 1
toen 1
##եց 1
htm 1
##atu 1
Arbeit 1
##nski 1
##vala 1
რომ 1
aikana 1
Nachdem 1
changes 1
notable 1
##čí 1
pháp 1
فيها 1
کتاب 1
Rodríguez 1
లోపు 1
суу 1
televisión 1
Silver 1
##ств 1
Guerre 1
sources 1
informality 1
##ża 1
yoktur 1
estate 1
Süden 1
##ney 1
##चे 1
##ues 1
153 1
##вой 1
already 1
Beezley 1
Mexiko 1
recent 1
##ιο 1
092917 1
511228 1
87237 1
0815752199 1
1403962588 1
1884964311 1
đô 1
1579583377 1
##uer 1
##eus 1
##tak 1
Elisabeth 1
##nse 1
##ంది 1
meist 1
##ター 1
E0 1
Tyskland 1
którym 1
##ías 1
kedua 1
##ნა 1
journal 1
tina 1
##skiej 1
Arte 1
##uti 1
musste 1
Christ 1
decide 1
##ческого 1
Ernest 1
није 1
feature 1
maison 1
ataupun 1
##ária 1
Sau 1
##وي 1
##കൾ 1
##лан 1
Economic 1
##۵ 1
Өзен 1
numerous 1
voi 1
speed 1
haber 1
anh 1
##IS 1
##wego 1
going 1
група 1
##ує 1
##ür 1
##pet 1
dès 1
nunca 1
##ики 1
maggiore 1
appearance 1
broj 1
だった 1
Kabupatèn 1
līdz 1
École 1
##만 1
partes 1
conjunto 1
localidad 1
relación 1
985 1
bas 1
1823 1
##cing 1
nên 1
##dag 1
##istä 1
##ರ್ 1
hard 1
אף 1
##ис 1
Fischer 1
favor 1
schließlich 1
Martín 1
nuova 1
шарахь 1
2013년 1
Tochter 1
analysis 1
zaman 1
Eduardo 1
tom 1
степени 1
округа 1
takes 1
aujourd 1
ومن 1
når 1
##olo 1
われた 1
ปี 1
війни 1
lungo 1
##σία 1
2010년 1
##ությամբ 1
##най 1
Kunst 1
eigen 1
##eria 1
##ime 1
روستا 1
##cker 1
thức 1
أنه 1
##til 1
hotel 1
Bereich 1
Valle 1
samen 1
##య 1
##rada 1
علي 1
types 1
adlı 1
העולם 1
Days 1
cầu 1
СПб 1
Ministry 1
##ید 1
##ega 1
Parliament 1
characters 1
вони 1
świata 1
със 1
Wars 1
العربية 1
##hat 1
##ize 1
specific 1
##ške 1
название 1
Olympics 1
булып 1
##வு 1
muchos 1
znajduje 1
regio 1
ಅಥವಾ 1
entire 1
Су 1
bawah 1
##wą 1
От 1
##ง 1
संस्कृत 1
Gebäude 1
Froese 1
##dit 1
えた 1
wieś 1
##ங்கள் 1
което 1
192 1
annat 1
##ány 1
মারির 1
##ær 1
value 1
##тель 1
##რის 1
Vice 1
fosse 1
ضلع 1
esposa 1
##bury 1
Italien 1
Class 1
##வர் 1
DDR 1
##ër 1
##tique 1
Bulletin 1
entered 1
##stes 1
concept 1
Watson 1
Nintendo 1
decision 1
##ering 1
165 1
##aje 1
##oto 1
Además 1
##pie 1
وكانت 1
##ciju 1
стр 1
Front 1
alatt 1
##rre 1
édition 1
##צר 1
annual 1
Iron 1
##lom 1
تھا 1
tierra 1
versione 1
tendo 1
##ър 1
участь 1
तक 1
Tropiskt 1
Türk 1
Plus 1
Jest 1
blieb 1
places 1
onun 1
dire 1
limited 1
##ust 1
condado 1
Cuando 1
Five 1
##är 1
jedna 1
mano 1
cambio 1
##taa 1
климатан 1
##hy 1
##licher 1
##lə 1
жалпы 1
sociale 1
noong 1
Democratic 1
##Q 1
##ulu 1
formar 1
sit 1
activities 1
prime 1
officer 1
Nicholas 1
musica 1
Linux 1
##ကို 1
##eve 1
مورد 1
##ող 1
troisième 1
jeweils 1
1811 1
increased 1
العالم 1
operated 1
sound 1
villages 1
##ră 1
ГЗ 1
березня 1
utama 1
##zing 1
հետո 1
letter 1
Segundo 1
Complete 1
weiteren 1
kay 1
Partei 1
programs 1
host 1
Before 1
Bir 1
লোক 1
Parks 1
##ува 1
laatste 1
voitti 1
##zin 1
censo 1
linea 1
май 1
##ια 1
Rhestr 1
Inglaterra 1
Julia 1
Hrvatske 1
##iri 1
fet 1
Kota 1
##mica 1
terug 1
Spider 1
še 1
##rm 1
##end 1
##lem 1
trận 1
Lloyd 1
अपने 1
##чке 1
أي 1
Conservation 1
maps 1
##৫ 1
volgende 1
here 1
##вати 1
Ken 1
##ನ್ನು 1
##aga 1
travail 1
wechselte 1
##vor 1
separate 1
##rel 1
##ņu 1
##ност 1
Ari 1
religious 1
function 1
fútbol 1
bus 1
مجموعی 1
Bobby 1
Or 1
construcción 1
Rolling 1
يمكن 1
BC 1
às 1
hidup 1
WCSP 1
Domenico 1
биле 1
Secretary 1
tranh 1
volkstelling 1
##tı 1
verwendet 1
Yu 1
espécie 1
Negeri 1
##mel 1
Istwa 1
Finlayson 1
Kent 1
##τική 1
teve 1
Reich 1
۲۰۱۸ 1
Pérez 1
folgenden 1
née 1
##ό 1
##af 1
##isa 1
##riu 1
μετά 1
Unión 1
Prozent 1
առաջին 1
Leon 1
certains 1
école 1
infatti 1
już 1
Eddie 1
tàu 1
Ne 1
Januari 1
concert 1
marine 1
таких 1
chief 1
çox 1
bank 1
##ň 1
Military 1
##kiej 1
ਇਹ 1
##iel 1
##ници 1
serve 1
Hon 1
##zel 1
tête 1
vrijeme 1
##rz 1
medical 1
Singapore 1
149 1
blitt 1
Motor 1
Som 1
места 1
informatie 1
##कर 1
##اق 1
présente 1
anime 1
toga 1
Taiwan 1
Westen 1
شرکت 1
Raja 1
erhalten 1
energia 1
Jerman 1
2015년 1
bli 1
pierwszy 1
također 1
championnat 1
artists 1
138 1
второй 1
##cké 1
Square 1
##ration 1
Napoli 1
adı 1
perché 1
politik 1
majority 1
Mont 1
již 1
Editors 1
omgivande 1
тата 1
zerbitzu 1
##cle 1
Ball 1
Language 1
situato 1
Desa 1
Frankreich 1
Guatemala 1
##ულ 1
Site 1
ابن 1
réalisé 1
Rolle 1
veya 1
##να 1
##դ 1
2019 1
##lne 1
polski 1
yeni 1
Secret 1
wraz 1
##ική 1
Position 1
mille 1
##zik 1
##ill 1
##ып 1
##lad 1
148 1
1804 1
shot 1
content 1
143 1
Bergen 1
##その 1
caused 1
էջ 1
lines 1
##ško 1
##ото 1
nazionale 1
municipi 1
Sankt 1
##etta 1
mae 1
Wall 1
болып 1
miembros 1
übernahm 1
element 1
##bs 1
valamint 1
Hydrology 1
##ει 1
Films 1
##tant 1
##sm 1
5194 1
Nouvelle 1
Dragon 1
След 1
федераль 1
always 1
##ది 1
##ēja 1
بازی 1
ни 1
baino 1
selected 1
##шим 1
führt 1
studied 1
შემდეგ 1
území 1
Frankrike 1
##ора 1
##pun 1
room 1
got 1
##ень 1
этот 1
edir 1
алып 1
Ve 1
Дәүләт 1
erreichte 1
##ksen 1
##ára 1
ایالات 1
hess 1
kommer 1
##ною 1
ishte 1
##コ 1
Gikuha 1
hours 1
منها 1
datos 1
אם 1
Största 1
141 1
##zes 1
##ীয় 1
miatt 1
##ρο 1
Platnick 1
##wen 1
Oklahoma 1
##ço 1
classes 1
Ancient 1
Lisa 1
##бу 1
Ciudad 1
##ән 1
Discovery 1
##more 1
##фа 1
GmbH 1
Из 1
яго 1
1807 1
Atlanta 1
##דים 1
remains 1
temple 1
tim 1
##ży 1
##stadt 1
רבים 1
Gruppen 1
joueur 1
latin 1
programme 1
île 1
göre 1
hecho 1
139 1
sexual 1
##cznych 1
##ieron 1
##льно 1
terrängen 1
Thailand 1
##τος 1
Schmidt 1
هستند 1
Maryland 1
us 1
Kentucky 1
##৭ 1
Larry 1
cross 1
één 1
být 1
##ből 1
husband 1
mundial 1
##ois 1
##తో 1
Mannschaft 1
forms 1
modelo 1
##aal 1
pie 1
Imperial 1
Parti 1
maakte 1
Также 1
ak 1
idi 1
gilt 1
voz 1
verschillende 1
רק 1
함께 1
сам 1
Sol 1
lahko 1
plaza 1
particularly 1
##une 1
1805 1
##скай 1
ім 1
март 1
Bredden 1
##tem 1
Weltkrieg 1
detta 1
##তা 1
być 1
Lan 1
июль 1
Ai 1
Italie 1
словарь 1
Harold 1
##нин 1
werk 1
kaip 1
##գ 1
146 1
nello 1
##щи 1
lloc 1
##shire 1
bem 1
Kenya 1
Neil 1
organisation 1
Нью 1
1794 1
##ут 1
##зу 1
##bare 1
ito 1
eles 1
voce 1
##lərin 1
utsträckningen 1
frá 1
primärfaktorn 1
##ază 1
##ката 1
höjdkurva 1
Primärfaktor 1
framräknad 1
##for 1
scale 1
comarca 1
다른 1
тем 1
けた 1
Histoire 1
##eau 1
##৬ 1
République 1
Verein 1
متحده 1
##lation 1
Mayor 1
monument 1
##له 1
##ար 1
Soul 1
membro 1
ժամանակ 1
Oregon 1
Detroit 1
Met 1
đấu 1
##טה 1
Sunday 1
Но 1
##ış 1
Dabei 1
victory 1
##кою 1
positive 1
##mise 1
Hannover 1
Sebastian 1
##ग 1
##ines 1
อังกฤษ 1
Torino 1
İstanbul 1
termasuk 1
##פו 1
تقع 1
жатқан 1
##vou 1
##۹ 1
romana 1
##erna 1
честь 1
##jä 1
university 1
##form 1
##ową 1
Население 1
లో 1
Box 1
Original 1
##ナ 1
kort 1
technology 1
Magic 1
tv 1
OL 1
sola 1
nombreuses 1
Mississippi 1
しており 1
Urban 1
mostly 1
работал 1
index 1
##ally 1
aid 1
##rate 1
Alfonso 1
tarihinde 1
##zt 1
##ците 1
partidos 1
verschiedenen 1
##rem 1
thấy 1
Australien 1
또한 1
leis 1
##ridae 1
##hon 1
sehingga 1
19th 1
мәгълүматы 1
نۆفوس 1
Profile 1
Bird 1
toe 1
application 1
##дын 1
acht 1
Mi 1
##bos 1
##ball 1
sister 1
NHK 1
relationship 1
Roland 1
##नी 1
147 1
rugby 1
##чний 1
##וד 1
kishi 1
##אן 1
##ಟ್ 1
тоа 1
minangka 1
##пе 1
Wagner 1
meeting 1
vivien 1
relations 1
sekitar 1
lot 1
posteriormente 1
روی 1
كرة 1
kur 1
##վեց 1
Mabibilngan 1
act 1
moun 1
miejscu 1
##ਸ 1
##эр 1
cities 1
кочĕ 1
##այում 1
##৩ 1
другие 1
##hoz 1
altitude 1
Harrison 1
##ność 1
deve 1
Knight 1
Después 1
தமிழ் 1
Ligue 1
Geographic 1
Беларусь 1
Ayisyen 1
##위 1
tzv 1
მისი 1
ಇದು 1
185 1
elementos 1
keer 1
##ierung 1
villa 1
note 1
multiple 1
Alabama 1
rus 1
extra 1
negeri 1
Polish 1
historical 1
orde 1
uses 1
Dennis 1
##гән 1
beliau 1
Österreich 1
##نے 1
história 1
recording 1
becoming 1
Ralph 1
Ukraine 1
referred 1
##ार 1
altura 1
byli 1
której 1
##فة 1
##où 1
medlem 1
##elijke 1
142 1
##க 1
январь 1
kjent 1
Shakespeare 1
Publications 1
notes 1
##мо 1
##ını 1
Terry 1
yil 1
##hes 1
위해 1
Mitchell 1
##fied 1
গননা 1
než 1
##ব 1
hin 1
society 1
жыл 1
したが 1
incolarum 1
jejich 1
Jeho 1
deal 1
Unit 1
##nem 1
nhạc 1
όπου 1
văn 1
Prime 1
bố 1
##icus 1
tutte 1
##ību 1
##ace 1
една 1
llamado 1
##க்க 1
лише 1
##ског 1
##ись 1
fik 1
lödanefa 1
Base 1
Isabel 1
ketika 1
##שת 1
Preis 1
тиклем 1
grâce 1
めて 1
Abraham 1
augustus 1
உள்ள 1
ప్రైవేటు 1
Inggris 1
##ug 1
அல்லது 1
лаьтта 1
##ус 1
Mans 1
Provinz 1
esempio 1
paling 1
fuera 1
ime 1
культуры 1
##gn 1
##ும் 1
nine 1
Henrik 1
##ियों 1
tərəfindən 1
capitale 1
Белоруссин 1
попису 1
directeur 1
##iano 1
##ず 1
Osten 1
##stra 1
eingesetzt 1
speelde 1
następnie 1
acordo 1
##ization 1
aufgrund 1
Laurent 1
সংগৃহীত 1
Aquesta 1
Zürich 1
##ep 1
##stu 1
Dick 1
shown 1
relasyon 1
##сан 1
supported 1
##ság 1
Hier 1
##die 1
kaksi 1
gewählt 1
##jn 1
##nsa 1
broju 1
थन 1
entstand 1
Dallas 1
##ад 1
toàn 1
passed 1
##ово 1
Queensland 1
horien 1
versi 1
##tische 1
पूर्व 1
##ась 1
Hughes 1
##ім 1
مشتمل 1
##ére 1
posición 1
からの 1
Camp 1
Kaiser 1
##taan 1
##אר 1
##kk 1
comte 1
##ші 1
presented 1
ஊராட்சி 1
empreses 1
native 1
Din 1
##үү 1
gare 1
##cem 1
canton 1
subject 1
##нской 1
ਵਿਚ 1
##air 1
Николай 1
succès 1
##dea 1
Hunter 1
##nischen 1
##lja 1
năng 1
mặt 1
allen 1
tradition 1
например 1
కింది 1
jotka 1
Đông 1
forced 1
##qué 1
dwa 1
##cca 1
##た 1
situat 1
##ур 1
んだ 1
##რ 1
##ális 1
право 1
Hi 1
ছিল 1
2009년 1
##ják 1
których 1
sull 1
později 1
insgesamt 1
Nancy 1
בה 1
##ക്ക് 1
##rá 1
obci 1
Kina 1
Novi 1
operation 1
toimi 1
errichtet 1
Control 1
##pas 1
##oe 1
および 1
муниципальных 1
problemas 1
tham 1
##₂ 1
hau 1
##zado 1
Rick 1
ағыл 1
##sat 1
##ís 1
bakarrik 1
trí 1
1798 1
ਲਈ 1
Schule 1
Beispiel 1
##slag 1
friend 1
hóa 1
pouvoir 1
Совет 1
Tu 1
##لي 1
##рия 1
entrada 1
Singles 1
campus 1
diri 1
Selon 1
##৮ 1
Threatened 1
stark 1
##મ 1
inizio 1
тұрғындарының 1
equipos 1
##యం 1
##tone 1
##bet 1
הספר 1
kilometres 1
Langau 1
##oz 1
molti 1
yaitu 1
##تها 1
mula 1
##ਆਂ 1
inglese 1
Tommy 1
##بر 1
UA 1
Richtung 1
växtlighet 1
Serbia 1
amo 1
individuals 1
Dieser 1
##ńskiej 1
##ύ 1
##ట్ 1
نوع 1
##nic 1
##ligt 1
categoria 1
tenir 1
uomo 1
oggi 1
estudios 1
##teen 1
pr 1
##ște 1
##ének 1
Sint 1
##री 1
##als 1
##sas 1
##єю 1
longer 1
##вся 1
stat 1
melalui 1
lea 1
##nə 1
##чі 1
Boeing 1
##들이 1
alan 1
đất 1
הראשונה 1
##ять 1
bergig 1
NFL 1
mientres 1
middle 1
themselves 1
##ores 1
##кова 1
sota 1
##த்தின் 1
Fe 1
Dort 1
פי 1
प्रभाव 1
Perry 1
đề 1
##dh 1
pat 1
muss 1
emakume 1
##ppen 1
##іі 1
Independent 1
Jules 1
ancienne 1
##hof 1
kulle 1
seguinte 1
##ాలు 1
Guardian 1
engl 1
##مان 1
Był 1
question 1
##רת 1
radius 1
##oso 1
avea 1
línea 1
##ук 1
##rou 1
successo 1
Millionen 1
Ho 1
diversi 1
##idá 1
ejemplo 1
نال 1
այդ 1
दिया 1
##yla 1
Services 1
resultado 1
yels 1
Note 1
cualquier 1
##нского 1
தமிழக 1
203 1
коли 1
##ській 1
કે 1
dus 1
##дә 1
fill 1
##ி 1
##лось 1
##eda 1
provides 1
##yt 1
politico 1
##tein 1
##rung 1
الأول 1
##rg 1
serving 1
مرکزی 1
dato 1
pages 1
nota 1
Dorf 1
##ový 1
##nz 1
meno 1
Ricardo 1
##see 1
biri 1
gian 1
##ках 1
##rka 1
##çi 1
côté 1
tiểu 1
##ên 1
##kommen 1
المدينة 1
ગામમાં 1
Ädabinons 1
Так 1
##èn 1
Foreign 1
Carmen 1
пад 1
lomanefs 1
äbinädons 1
äsoelöl 1
famüls 1
##ßen 1
Demü 1
volte 1
programma 1
##lot 1
voms 1
jer 1
pösod 1
##лась 1
##ako 1
ädabinoms 1
##skom 1
appears 1
##iers 1
##ником 1
increase 1
enkele 1
yera 1
1799 1
Lemesed 1
Re 1
##10 1
##зм 1
##por 1
##크 1
##호 1
##ческие 1
variety 1
##isation 1
possono 1
grazie 1
##ól 1
##osi 1
قدم 1
Leonard 1
episodi 1
##ტი 1
हा 1
##tien 1
طول 1
##of 1
##ole 1
Klasse 1
Rahmen 1
Prima 1
ministro 1
151 1
erschien 1
développement 1
##נס 1
##yang 1
іх 1
थाय्या 1
##gua 1
##mana 1
statistiku 1
Danny 1
đặc 1
vengono 1
аумағы 1
protection 1
darauf 1
##шки 1
##రి 1
##añ 1
między 1
фильм 1
tek 1
Rey 1
isla 1
politician 1
furent 1
##issä 1
##unda 1
création 1
##tate 1
cô 1
1791 1
GMT 1
sort 1
##ství 1
sangat 1
processo 1
klubu 1
Ron 1
باشد 1
қарор 1
ultima 1
##дың 1
nekoliko 1
Klimatet 1
##תו 1
##ët 1
phương 1
done 1
##ыя 1
mi² 1
mère 1
dël 1
chuyển 1
بۇ 1
Ingelesez 1
Rob 1
##зы 1
insbesondere 1
langs 1
problems 1
##head 1
##ум 1
4th 1
phase 1
##wn 1
punika 1
metatra 1
Statistik 1
virus 1
##gie 1
vest 1
haavon 1
পাসিলাঙতা 1
udział 1
második 1
159 1
publicado 1
یاشاییش 1
Unter 1
156 1
##Т 1
dance 1
##pur 1
における 1
##ίας 1
##trice 1
образом 1
Dei 1
liên 1
sik 1
composed 1
##ток 1
становить 1
##ські 1
1400 1
Entwicklung 1
##ван 1
Muslim 1
##् 1
মধ্যে 1
waarin 1
udalerriko 1
##lage 1
larger 1
население 1
168 1
zones 1
bình 1
##ір 1
Egypt 1
##вање 1
your 1
Baron 1
Alain 1
seul 1
około 1
Galicia 1
Comics 1
diversas 1
بین 1
##لا 1
Never 1
ligg 1
##zas 1
fiction 1
apie 1
ongeveer 1
##dung 1
assim 1
Units 1
##anie 1
Governor 1
magnitudo 1
IMDb 1
initially 1
Schloss 1
##ume 1
##vanja 1
Naval 1
##imento 1
đạo 1
loi 1
Felipe 1
Limited 1
Ecuador 1
##dou 1
##۸ 1
ശേഖരിച്ചത് 1
##국 1
##யின் 1
154 1
##zenia 1
Neben 1
دهستان 1
1797 1
##५ 1
pois 1
альбом 1
лишь 1
Frauen 1
Notre 1
Jahres 1
##cco 1
azt 1
Dublin 1
بـ 1
##тын 1
##uz 1
española 1
Ocean 1
Korean 1
đây 1
##ย 1
##ві 1
##лин 1
bo 1
##ล 1
Natur 1
sala 1
metri 1
stock 1
##уу 1
##ণ 1
sou 1
##اری 1
##ене 1
stop 1
##ర 1
##нні 1
Τα 1
دیر 1
navn 1
##קים 1
bestaat 1
##ാൻ 1
raised 1
singles 1
##maa 1
مجلس 1
##chte 1
##gem 1
César 1
##ců 1
##lara 1
masih 1
Mercedes 1
cadre 1
prison 1
##ление 1
cukup 1
Uruguay 1
Classic 1
società 1
Его 1
##бор 1
llegó 1
Союза 1
Emma 1
होती 1
Singh 1
Nederlands 1
##скі 1
грудня 1
##ье 1
lalek 1
##يم 1
Orange 1
Том 1
##stad 1
Über 1
premio 1
makes 1
##ине 1
330 1
finden 1
میتوان 1
Ye 1
religion 1
EM 1
financial 1
##lum 1
##xi 1
##ως 1
دریا 1
call 1
rond 1
университета 1
##has 1
algunas 1
fő 1
ним 1
أول 1
##bank 1
##off 1
fem 1
Ferrari 1
Krieg 1
Alaska 1
##iet 1
Vienna 1
##uch 1
gift 1
Also 1
укр 1
##관 1
ditamukan 1
##מר 1
очень 1
Jerusalem 1
laquelle 1
vuosina 1
##zada 1
ونسبة 1
spesso 1
vært 1
##ڈ 1
Flora 1
nghiệp 1
##اح 1
منطقهسیدیر 1
##jana 1
produzione 1
biztanleak 1
Maine 1
Six 1
existence 1
Graf 1
pilot 1
Guillaume 1
populations 1
##rica 1
Masters 1
##من 1
races 1
또는 1
##조 1
experience 1
##დან 1
Politiker 1
Torre 1
##unt 1
År 1
Congo 1
құрамына 1
juego 1
king 1
contact 1
rispetto 1
##ží 1
Metro 1
собой 1
Chemistry 1
edizione 1
gizon 1
##seen 1
Ông 1
##гийн 1
pl 1
##ೂ 1
connu 1
धुंका 1
punt 1
##מית 1
##வை 1
puesto 1
2008년 1
vara 1
момент 1
deu 1
##λο 1
Buch 1
שנים 1
epoca 1
##ub 1
زمان 1
##ised 1
PGC 1
devant 1
##כות 1
Medicine 1
Berliner 1
##wald 1
##čni 1
până 1
бутт 1
550 1
ноҳияи 1
##ові 1
sería 1
бассейн 1
##рт 1
MBC 1
Computer 1
##ног 1
saka 1
terre 1
##ght 1
##از 1
konnten 1
##ються 1
##ड 1
##۲ 1
すると 1
sat 1
görə 1
representa 1
éxito 1
Bar 1
##৪ 1
одной 1
massa 1
2017년 1
##スト 1
своих 1
Peace 1
##wel 1
شامل 1
typu 1
##ved 1
raz 1
##ೇ 1
##oy 1
versions 1
##dne 1
##tok 1
##ющий 1
##cją 1
believed 1
عاماً 1
evento 1
Oriental 1
mag 1
вона 1
ball 1
##গ 1
201 1
animalia 1
##yr 1
때문에 1
dice 1
##ета 1
##platz 1
Burg 1
giữa 1
agit 1
##μο 1
claimed 1
Совета 1
белән 1
parish 1
Utara 1
##дия 1
##ř 1
podle 1
écrit 1
тој 1
Republika 1
cell 1
Hand 1
weeks 1
Anders 1
округында 1
Side 1
Mare 1
championship 1
stars 1
vila 1
##fu 1
Philippines 1
##ních 1
nuclear 1
##ћ 1
union 1
##rian 1
Юханшыв 1
Colin 1
کاؤنٹی 1
##bit 1
Production 1
dû 1
مصر 1
jogo 1
Introduction 1
החל 1
failed 1
giorno 1
##ије 1
município 1
allo 1
fight 1
Latvijas 1
oedd 1
architecture 1
domaine 1
##пи 1
##ización 1
duke 1
والتي 1
Historic 1
kdy 1
##band 1
nghĩa 1
##kap 1
FA 1
quand 1
foreign 1
##יל 1
биләмәләрендә 1
##nska 1
Martínez 1
##ann 1
##cą 1
Gunung 1
сезона 1
##ták 1
stessa 1
gouf 1
teki 1
Federico 1
université 1
1796 1
##υς 1
Meister 1
baten 1
##стей 1
davon 1
##iger 1
command 1
##vání 1
свой 1
yuta 1
##ано 1
Германия 1
siège 1
##mir 1
winner 1
mainly 1
Lanka 1
назначен 1
etxetan 1
jumlah 1
くの 1
వైద్య 1
Rica 1
роки 1
troops 1
electronic 1
##bility 1
nave 1
només 1
offered 1
##рана 1
225 1
тип 1
Lane 1
1775 1
først 1
হিসেবে 1
##ვის 1
Hugh 1
Theo 1
Արխիվացված 1
sampai 1
##ത 1
##ள் 1
##chaft 1
объектының 1
##ún 1
ceux 1
реестрында 1
##dere 1
205 1
Primary 1
επίσης 1
##անում 1
##ával 1
Sánchez 1
##cz 1
селото 1
Joachim 1
oğlu 1
##rkan 1
bal 1
Perú 1
nhau 1
##nidae 1
##elijk 1
##kka 1
kembali 1
##ös 1
օրիգինալից 1
denn 1
polos 1
##يف 1
##いる 1
vivo 1
locale 1
moi 1
となっている 1
helped 1
Affairs 1
proceso 1
Dresden 1
boli 1
products 1
Due 1
##iki 1
##ick 1
saj 1
vert 1
carriera 1
Seattle 1
Willem 1
##ще 1
167 1
##rana 1
##عب 1
fivondronan 1
##nat 1
musik 1
Einsatz 1
шамасында 1
##recht 1
firma 1
##களின் 1
##شی 1
tysk 1
##ուն 1
Université 1
لیے 1
Unido 1
##తి 1
##bro 1
Security 1
##växtart 1
նրա 1
öppet 1
##бург 1
##лей 1
Karel 1
##മാണ് 1
Kanton 1
mam 1
##imi 1
##yk 1
novela 1
Sweden 1
йылда 1
tử 1
##ელი 1
anggota 1
comenzó 1
siguientes 1
tennis 1
dituzten 1
Hudson 1
overall 1
##jący 1
border 1
fans 1
Werk 1
результате 1
numbers 1
##oko 1
Lors 1
vann 1
##kie 1
Agosto 1
Grammy 1
##בות 1
subsequently 1
aparece 1
consists 1
##ggi 1
Kate 1
bidädas 1
truyền 1
1300 1
couple 1
might 1
vezes 1
prior 1
Both 1
może 1
##baar 1
##idas 1
Jo 1
يتم 1
##না 1
annet 1
ساییمی 1
лело 1
sulle 1
añu 1
Thái 1
##gli 1
نقش 1
mellem 1
aire 1
Montreal 1
lavoro 1
ließ 1
Dam 1
##zos 1
داشت 1
osoba 1
##この 1
drug 1
assistant 1
pessoas 1
response 1
Edgar 1
Giorgio 1
##onia 1
leaving 1
завод 1
hall 1
दूगु 1
##کار 1
ubicado 1
acquired 1
Rico 1
##צ 1
część 1
##gut 1
بها 1
került 1
MS 1
sacaro 1
către 1
barruko 1
521 1
Ich 1
دور 1
##ché 1
157 1
m³ 1
opere 1
##dent 1
TITAN 1
turned 1
Ayiti 1
projekt 1
##ري 1
وہ 1
##lingen 1
estudio 1
##ctor 1
##키 1
press 1
selama 1
तो 1
##ҡ 1
hockey 1
##scher 1
##وان 1
whole 1
ஆண்டு 1
Belgique 1
##nça 1
##onal 1
##tou 1
sui 1
ამ 1
Spiel 1
através 1
##eb 1
Energy 1
власти 1
##ர 1
என்பது 1
##zug 1
כן 1
##ಿಂದ 1
България 1
topäd 1
##ונות 1
figures 1
##00 1
だが 1
котором 1
alleen 1
oil 1
##က် 1
हिन्दू 1
comună 1
Seven 1
Newton 1
department 1
đang 1
##шка 1
##ària 1
sam 1
##rra 1
##هٔ 1
carried 1
##ars 1
שנה 1
Vicente 1
lungsod 1
ਵੀ 1
##ppe 1
cuales 1
жители 1
Istituto 1
allemand 1
kamen 1
triển 1
##water 1
կմ² 1
Phoenix 1
Regierung 1
innerhalb 1
οποίο 1
##ання 1
kwadrado 1
зв 1
##۴ 1
oppervlakte 1
transfer 1
eigenen 1
får 1
หรือ 1
##lam 1
Cook 1
vinden 1
война 1
##ені 1
##ити 1
##ో 1
lenga 1
##larının 1
חלק 1
Не 1
##nun 1
bridge 1
##gg 1
mile 1
lagi 1
kinh 1
doch 1
650 1
mind 1
nego 1
Ved 1
##ವ 1
##чение 1
290 1
erneut 1
##iones 1
##۶ 1
Electric 1
generoko 1
raison 1
Bush 1
##vil 1
ला 1
течение 1
Angola 1
később 1
viz 1
nằm 1
##gna 1
desarrollo 1
##식 1
ikkje 1
meaning 1
stories 1
města 1
##ький 1
vocal 1
##mina 1
161 1
Browser 1
Batman 1
Jesús 1
berada 1
Алып 1
сих 1
sekolah 1
##aj 1
##رد 1
treba 1
houses 1
##ove 1
Software 1
dela 1
##ром 1
جنوب 1
Marvel 1
##cken 1
familian 1
##ή 1
exemplo 1
teil 1
ресурстары 1
##uo 1
Operation 1
Emmanuel 1
##лю 1
##тары 1
Zum 1
فوتبال 1
Feb 1
місце 1
cabo 1
##ől 1
Delta 1
##gde 1
Take 1
Solo 1
##ान 1
centrum 1
##nud 1
##ਰੀ 1
Warszawa 1
fora 1
Action 1
##mme 1
état 1
##ním 1
Drama 1
interview 1
##ssen 1
1980s 1
بشكل 1
tổ 1
Teresa 1
escritor 1
бір 1
stort 1
شابلون 1
Халық 1
đá 1
Estats 1
ancient 1
opposition 1
dagli 1
##ћи 1
Despite 1
habitantaro 1
##ños 1
##یان 1
##ಮ 1
##lje 1
سرشماری 1
Bas 1
nim 1
Rom 1
158 1
Sus 1
##гә 1
##ándose 1
Braun 1
Zijn 1
دست 1
multi 1
olla 1
direkt 1
disebut 1
منطقة 1
れた 1
sing 1
grada 1
Một 1
finally 1
##stica 1
Alemania 1
Caroline 1
Jego 1
membuat 1
Galerie 1
##ε 1
voice 1
##ування 1
SBS 1
hacer 1
163 1
dernière 1
Jepang 1
Theory 1
##straße 1
##owanie 1
effects 1
SK 1
##ktor 1
##овых 1
aproximadamente 1
dâ 1
Via 1
sortie 1
##lina 1
teoria 1
##ьной 1
##rda 1
Sean 1
hiệu 1
marriage 1
##schap 1
PS 1
Wiley 1
sien 1
earned 1
Railways 1
permanent 1
words 1
систем 1
comercial 1
alemán 1
található 1
Beatles 1
русӣ 1
інш 1
Type 1
##gate 1
Petit 1
##lica 1
damals 1
Кубка 1
##לת 1
##ющих 1
نظر 1
##ності 1
##nze 1
##aya 1
impact 1
คือ 1
SA 1
##ਿਆ 1
toerana 1
जुइ 1
##bas 1
passa 1
np 1
##ļu 1
pole 1
skład 1
##rst 1
soprattutto 1
##fo 1
##jin 1
##чні 1
Ba 1
occasion 1
escola 1
Insel 1
##اع 1
Helen 1
באופן 1
##ması 1
attention 1
Cleveland 1
terdapat 1
Ward 1
##М 1
Grace 1
tropical 1
Sachsen 1
pública 1
Klaus 1
начала 1
##৯ 1
##ike 1
##۳ 1
Afrique 1
عند 1
##ями 1
Statistical 1
voix 1
Bremen 1
##עה 1
Jennifer 1
Depuis 1
hoạt 1
basso 1
literatura 1
renda 1
##лган 1
déjà 1
cümü 1
것을 1
Edinburgh 1
##ското 1
manga 1
kurz 1
##växter 1
nearly 1
تھے 1
treatment 1
Sophie 1
Swedish 1
languages 1
##۷ 1
нар 1
sünd 1
##산 1
passe 1
kes 1
Württemberg 1
##ਟ 1
broadcast 1
Conform 1
##žil 1
##िया 1
attempt 1
seasons 1
două 1
সালের 1
MODIS 1
conocida 1
##ición 1
Sarajevo 1
##യം 1
habe 1
comes 1
##며 1
pernah 1
enough 1
страны 1
dwóch 1
##ява 1
عمل 1
Baltimore 1
Personen 1
illetve 1
Sofia 1
conhecido 1
lives 1
Tower 1
terhadap 1
##ِ 1
plants 1
##dik 1
busklandskap 1
אביב 1
##ரி 1
##vam 1
##wr 1
உள்ளது 1
Beginn 1
Dân 1
machine 1
Capital 1
Pero 1
Dakota 1
Bundesliga 1
weg 1
torre 1
Eduard 1
Sevilla 1
Minh 1
##rina 1
dài 1
într 1
Sweet 1
genere 1
##gung 1
remaining 1
##meister 1
Chelsea 1
##や 1
Te 1
OCLC 1
##row 1
Iraq 1
KBS 1
reference 1
milieu 1
Formula 1
сельского 1
##rius 1
##タ 1
Boris 1
Napoleon 1
Potter 1
##২ 1
Außerdem 1
zavatra 1
Tra 1
mizaka 1
Nguyễn 1
janë 1
##ыми 1
Ronald 1
256 1
##list 1
##மான 1
châu 1
Round 1
מכן 1
##iros 1
maken 1
kerk 1
bl 1
Run 1
channel 1
дом 1
militare 1
Luke 1
Leta 1
Sex 1
zweite 1
##ory 1
kini 1
carreira 1
われる 1
Според 1
Công 1
Джон 1
المملكة 1
##iar 1
incluso 1
##той 1
життя 1
166 1
ખેતી 1
Editorial 1
Future 1
box 1
נולד 1
##lit 1
##ncies 1
جی 1
##noj 1
Théâtre 1
جس 1
nl 1
Nation 1
strane 1
desember 1
више 1
եղել 1
##ებს 1
danas 1
kommunadir 1
онд 1
##lista 1
want 1
изд 1
##リア 1
outro 1
starb 1
##vik 1
asteroide 1
product 1
син 1
nay 1
Hapit 1
nalukop 1
Mundo 1
Vancouver 1
sens 1
covered 1
##ship 1
##ových 1
##וני 1
वह 1
això 1
ehemaligen 1
ring 1
##ческий 1
gav 1
essa 1
età 1
그의 1
الوطني 1
Ring 1
##сці 1
levels 1
femmes 1
καθώς 1
##ното 1
##skej 1
Sitz 1
dapit 1
helt 1
Україні 1
##рын 1
fills 1
##tri 1
##ीय 1
Mart 1
jen 1
Lars 1
164 1
thiết 1
Wiener 1
##miştir 1
##אה 1
##miş 1
252 1
क्षेत्र 1
leven 1
podem 1
ولكن 1
responsible 1
persone 1
tâm 1
Vegas 1
prendre 1
Chiesa 1
##ök 1
eram 1
##யம் 1
Nhật 1
##hez 1
##ded 1
##uf 1
moderna 1
Cymru 1
##spiel 1
nen 1
##sation 1
##ū 1
にて 1
##ட் 1
##ио 1
становништва 1
Japon 1
cut 1
##계 1
##リ 1
176 1
##운 1
մեծ 1
##க்கும் 1
##ił 1
principios 1
którego 1
##zenie 1
Bretagne 1
proposed 1
##cke 1
юм 1
мешавад 1
##lata 1
##үн 1
##ಾಗಿ 1
tin 1
Building 1
Ban 1
fuit 1
##wym 1
chế 1
fit 1
##ξη 1
Höhe 1
162 1
Isaac 1
Child 1
dina 1
Heritage 1
##rico 1
AB 1
नाम 1
biệt 1
Orden 1
ఎక్కువ 1
##psis 1
मध्य 1
217 1
224 1
át 1
##८ 1
4000 1
أخرى 1
##дин 1
можна 1
##цией 1
Wide 1
Holy 1
NATO 1
Key 1
chanson 1
##のは 1
lançado 1
sajtu 1
##льной 1
dirección 1
nơi 1
##hold 1
2ᵉ 1
kontsultatua 1
##чни 1
##નો 1
sabagai 1
جنگ 1
Cameron 1
##وز 1
##ρία 1
gaan 1
##ческая 1
Felix 1
sendiri 1
মানু 1
профессор 1
##зма 1
##enti 1
IBM 1
որպես 1
Canton 1
latter 1
famílies 1
issued 1
ata 1
Він 1
joue 1
##tation 1
Hal 1
clima 1
technique 1
rencontre 1
Craig 1
початку 1
jos 1
الأولى 1
Emil 1
##pte 1
##istas 1
##uga 1
##야 1
sáng 1
initial 1
meilleur 1
Density 1
প্রথম 1
206 1
matrimonio 1
とする 1
ал 1
regions 1
##üm 1
heutigen 1
últimos 1
について 1
familiak 1
Hà 1
competed 1
Hawaii 1
així 1
##сен 1
علی 1
کند 1
Noiz 1
نہیں 1
heart 1
شمال 1
##אות 1
ala 1
tăng 1
Connecticut 1
أما 1
##eid 1
asi 1
##łów 1
chart 1
##ĕн 1
participe 1
fez 1
llamada 1
debe 1
tradicional 1
coa 1
před 1
полк 1
discovered 1
##jat 1
finals 1
пам 1
minute 1
##ート 1
NBC 1
între 1
Espagne 1
Kane 1
bare 1
במקום 1
##lay 1
даже 1
líder 1
Alessandro 1
xa 1
sorti 1
София 1
urtean 1
Republican 1
extended 1
nachádza 1
Staaten 1
##lıq 1
Ouest 1
##ську 1
table 1
documents 1
##ilo 1
Stato 1
București 1
۱۳۸۵ 1
##개 1
##্র 1
##kiem 1
##யும் 1
##OS 1
##வும் 1
estructura 1
##் 1
почти 1
типа 1
##oj 1
##று 1
zavod 1
retour 1
Rugby 1
##rier 1
##lade 1
##ե 1
bilang 1
##lainen 1
смерти 1
##ών 1
Spanien 1
Store 1
##३ 1
travers 1
वेबथाय् 1
Ла 1
Transport 1
utan 1
Website 1
biết 1
##ခဲ့သည် 1
وار 1
Justin 1
ailleurs 1
195 1
života 1
якого 1
attraverso 1
Indonesien 1
1780 1
manjadi 1
től 1
yet 1
factor 1
##श 1
בשם 1
Again 1
##enne 1
Renault 1
##hir 1
##ც 1
âm 1
1784 1
1970s 1
системы 1
##മായി 1
além 1
Door 1
security 1
एवं 1
Cet 1
know 1
##uro 1
junior 1
luvun 1
پیش 1
presenza 1
##થી 1
##телей 1
Archive 1
vel 1
235 1
##ock 1
العديد 1
1787 1
Михаил 1
Holstein 1
starting 1
##ћа 1
futuro 1
##ических 1
preko 1
protiv 1
##cka 1
##ája 1
##터 1
があり 1
dock 1
hombres 1
اخذ 1
208 1
wsi 1
whether 1
##ston 1
##kes 1
##ао 1
Agency 1
يكون 1
Shaw 1
그러나 1
##ters 1
Alliance 1
اثر 1
されていた 1
Forum 1
sciences 1
##२ 1
##stas 1
##igo 1
ebbe 1
انجام 1
##gó 1
юккъера 1
findet 1
quality 1
172 1
kata 1
অতার 1
Brigade 1
영어 1
disease 1
importance 1
chất 1
##rien 1
Polonia 1
lor 1
tyske 1
ניתן 1
##なかった 1
داد 1
Places 1
أحد 1
lid 1
кĕрет 1
##ന്റെ 1
182 1
tercer 1
##당 1
considerado 1
evit 1
##wanie 1
tiga 1
Plaza 1
beaucoup 1
Bulgaria 1
##mma 1
told 1
##jska 1
indak 1
##τες 1
##rni 1
Bee 1
##šta 1
проти 1
đổi 1
Chi 1
##չ 1
##hos 1
இந்திய 1
1783 1
Côte 1
geht 1
##גן 1
##шая 1
##rée 1
##θηκε 1
Lisboa 1
grade 1
pouze 1
##aar 1
phủ 1
tergolong 1
ఇతర 1
leave 1
##este 1
travaux 1
zog 1
natomiast 1
Alter 1
##في 1
हुआ 1
cos 1
центра 1
quest 1
הרב 1
177 1
luz 1
##że 1
##тва 1
Butler 1
மக்கள் 1
Bonn 1
rule 1
##mont 1
##etti 1
##med 1
sò 1
buah 1
Kings 1
захід 1
प्रदेश 1
allow 1
##వి 1
remporte 1
##lak 1
Кыргыз 1
friends 1
lies 1
##τικές 1
dưới 1
إحدى 1
Administration 1
свои 1
##iny 1
gadang 1
##いた 1
Йылға 1
सरकारया 1
god 1
tawo 1
VF 1
##డి 1
master 1
##jící 1
Palace 1
##மை 1
toont 1
Éditions 1
Steinicke 1
binnen 1
inter 1
कुछ 1
212 1
true 1
сын 1
inga 1
Cristo 1
##쪽 1
información 1
berasal 1
flera 1
kuten 1
##seite 1
Was 1
cı 1
Between 1
##kem 1
mass 1
##àn 1
Uma 1
marcapada 1
Porifera 1
Netherlands 1
##ttu 1
Nigeria 1
households 1
newspaper 1
стало 1
tedesco 1
215 1
nahimutangan 1
Spencer 1
1788 1
elections 1
##ctus 1
haut 1
אחת 1
residents 1
populație 1
##fication 1
drums 1
directly 1
diretto 1
##ców 1
alabak 1
213 1
##tako 1
americana 1
orixinal 1
Dels 1
genoemd 1
nói 1
minden 1
musicale 1
Metropolitan 1
visto 1
групи 1
##चा 1
##τικά 1
nébula 1
Calais 1
##și 1
169 1
##jonen 1
##ikan 1
##fel 1
despite 1
သည် 1
##лом 1
Hindu 1
Hope 1
града 1
##மாக 1
##ess 1
పాటు 1
##된다 1
län 1
##iset 1
##цій 1
##tidae 1
rivière 1
candidate 1
##czny 1
tiến 1
##गु 1
##マン 1
##னர் 1
thuật 1
##енко 1
Jakob 1
basketball 1
##elo 1
Emperor 1
تهران 1
actions 1
efforts 1
##ικά 1
større 1
Suid 1
नोभेम्बर 1
чего 1
##ими 1
##ด 1
##ése 1
##zzi 1
Hansen 1
lugha 1
ganó 1
Grupo 1
noen 1
hod 1
##שים 1
##oir 1
##лия 1
Sergio 1
completamente 1
convirtió 1
Study 1
constructed 1
сезон 1
##лог 1
Nó 1
된다 1
birlikte 1
Glasgow 1
##זר 1
##یس 1
Czech 1
Hrvatskoj 1
Islamic 1
asked 1
таксама 1
says 1
selle 1
книги 1
Wallace 1
##інің 1
livello 1
облысы 1
граф 1
دانشگاه 1
##なく 1
##ago 1
одна 1
##ří 1
produit 1
Hell 1
jamais 1
utanas 1
propio 1
202 1
grandi 1
Domingo 1
##ایی 1
##ження 1
##iji 1
Chen 1
##ந்து 1
##vina 1
##ág 1
alten 1
Warszawie 1
##логия 1
compositor 1
big 1
politica 1
crear 1
Campo 1
gihabogon 1
##tischen 1
recherche 1
besonders 1
Challenge 1
Tartu 1
commence 1
##pio 1
अन्य 1
وقت 1
இவர் 1
##종 1
##lies 1
další 1
Akademie 1
אותה 1
activity 1
hal 1
##ối 1
miasto 1
##יד 1
Youth 1
##raum 1
Rainer 1
##της 1
##шей 1
##skie 1
coast 1
##ór 1
Berkeley 1
##alo 1
##нта 1
També 1
коду 1
Organisation 1
가장 1
##ਂ 1
##ציה 1
Linda 1
formato 1
##ees 1
માટે 1
barn 1
frère 1
profesional 1
бовха 1
##eit 1
##ਦੀ 1
fifth 1
##ple 1
formerly 1
senare 1
Works 1
consiste 1
##dde 1
komun 1
során 1
પણ 1
WoRMS 1
gegenüber 1
bile 1
graduated 1
inferior 1
onda 1
204 1
danh 1
weil 1
Diarsipan 1
ea 1
planetesimal 1
tanan 1
##rf 1
mellett 1
cine 1
##vali 1
eesti 1
nuk 1
corte 1
##して 1
##² 1
tabantuak 1
bóng 1
Trust 1
seconde 1
miał 1
nation 1
aktiv 1
Nepal 1
##care 1
ud 1
Productions 1
Kiss 1
kasaluruahan 1
kind 1
MM 1
março 1
Liberal 1
Sarupo 1
##нка 1
pēc 1
αυτό 1
Short 1
ngaran 1
Princess 1
могут 1
Senate 1
Helena 1
380 1
##itu 1
Saesneg 1
jẹ́ 1
पहाडी 1
nearby 1
Елга 1
Herman 1
Roll 1
Rights 1
kasnije 1
innych 1
kilomètres 1
##یک 1
indica 1
gitara 1
promoted 1
tướng 1
median 1
##ης 1
##enden 1
##ivi 1
regió 1
Forces 1
divenne 1
petite 1
били 1
##τές 1
seulement 1
##нию 1
Freedom 1
Жаңа 1
##يين 1
Facebook 1
العام 1
##tten 1
Bedeutung 1
##소 1
первой 1
##প 1
mere 1
##bora 1
##லை 1
Fernsehserie 1
lehen 1
pai 1
Elena 1
Artens 1
dùng 1
188 1
Hart 1
mogu 1
István 1
бир 1
Francuske 1
habían 1
données 1
spons 1
mujeres 1
##punkt 1
dezembro 1
##دے 1
История 1
##גל 1
##αν 1
olyan 1
percent 1
моря 1
території 1
Diana 1
будет 1
##okat 1
quatro 1
Kenneth 1
suatu 1
abad 1
##ώς 1
итал 1
Brooklyn 1
désa 1
menyebabkan 1
vários 1
जुल 1
vegada 1
trưởng 1
Bolivia 1
##תה 1
Olivier 1
langue 1
bulunan 1
tiden 1
##ierten 1
##כל 1
đều 1
تاريخ 1
managed 1
Gregory 1
maximum 1
##hs 1
##cima 1
##カ 1
ಅವರು 1
året 1
179 1
đơn 1
##ști 1
##sco 1
##вого 1
##ън 1
340 1
આવે 1
resmi 1
##gens 1
##cznej 1
##së 1
شهرلرین 1
поселения 1
##ίων 1
method 1
##ид 1
Deux 1
olika 1
Utah 1
search 1
parfois 1
tropas 1
ją 1
donna 1
medieval 1
##rati 1
primarily 1
czy 1
pakigbingkil 1
##šie 1
Murphy 1
bois 1
##లను 1
##vý 1
SEDAC 1
آمار 1
num 1
janeiro 1
Greg 1
##кая 1
##하기 1
models 1
##אים 1
Player 1
##kla 1
##す 1
ભાગમાં 1
Liên 1
211 1
dana 1
baseball 1
##ome 1
щоб 1
mudo 1
##iten 1
titel 1
##צים 1
Facts 1
##미 1
##nji 1
Russland 1
##ець 1
##ică 1
##нең 1
ton 1
региону 1
যায় 1
музей 1
##وف 1
ll 1
sezonie 1
##aki 1
##ioni 1
techniques 1
mapa 1
178 1
стране 1
dess 1
171 1
zostały 1
##フ 1
popolazione 1
##жения 1
Aragón 1
noe 1
calcio 1
השני 1
females 1
gikk 1
Tamil 1
халыҡ 1
##bla 1
यक्व 1
مختلف 1
images 1
Test 1
Theodor 1
likely 1
вересня 1
నీరు 1
##gent 1
##js 1
eux 1
##ját 1
бы 1
183 1
##ért 1
##vě 1
##dale 1
Marne 1
##skich 1
என்று 1
IATA 1
ships 1
servir 1
recibió 1
enquanto 1
##ರುವ 1
जनगणना 1
Turkey 1
μέχρι 1
##ας 1
2007년 1
##лни 1
193 1
##ated 1
##う 1
quel 1
animals 1
##ible 1
##com 1
exterior 1
Leopold 1
కోడ్ 1
181 1
skrev 1
siempre 1
német 1
Londra 1
కంటే 1
##ulo 1
breve 1
cuối 1
لها 1
arter 1
thay 1
său 1
січня 1
guitarra 1
##rca 1
NY 1
##зі 1
##èl 1
miền 1
##ết 1
##sza 1
##нын 1
відстані 1
1785 1
गां 1
ID 1
якія 1
zahlreiche 1
TBS 1
crime 1
##iere 1
үшін 1
##mektedir 1
##वर 1
भाय् 1
SP 1
wing 1
##bon 1
Leonardo 1
utbredningsområde 1
##itet 1
argent 1
השנייה 1
##owi 1
##лна 1
Tanzania 1
Squadron 1
Norway 1
penduduk 1
arrived 1
##ران 1
Després 1
đảo 1
ziläk 1
##ены 1
संकिपा 1
wanted 1
селі 1
пункты 1
posizione 1
##ants 1
alternative 1
##క్ 1
##ะ 1
##ए 1
Espanya 1
разом 1
Está 1
Commonwealth 1
partire 1
##дер 1
pare 1
##पुर 1
origin 1
##ensis 1
sowohl 1
##rno 1
abans 1
Rebecca 1
darunter 1
Bologna 1
1776 1
##вания 1
##eel 1
##ldi 1
duc 1
##ವಾದ 1
##נד 1
##ther 1
##ló 1
highly 1
##۱ 1
##って 1
diferents 1
savo 1
число 1
дня 1
زیر 1
לפני 1
있으며 1
هناك 1
commerce 1
২০০৭ 1
terzo 1
دارای 1
##schule 1
appear 1
İstifadə 1
Mutter 1
Alla 1
categoría 1
ばれる 1
julho 1
Беларусі 1
##१ 1
##20 1
Од 1
suya 1
Jonas 1
dịch 1
journalist 1
##ери 1
##vent 1
posterior 1
##oo 1
équipes 1
antiga 1
184 1
tornou 1
Venezia 1
govori 1
vẫn 1
Reihe 1
verschiedene 1
francès 1
Bond 1
##ય 1
hulle 1
nhiệm 1
##år 1
##اند 1
executive 1
catalog 1
Happy 1
trains 1
##лған 1
##Д 1
поселений 1
ဖြစ်သည် 1
##ությունների 1
##зия 1
أكتوبر 1
Avec 1
коммуна 1
##čné 1
ello 1
۲۰۱۷ 1
##тся 1
Local 1
Ice 1
##타 1
पनि 1
Haaptacteuren 1
##rol 1
оның 1
samym 1
Source 1
principio 1
##ům 1
común 1
grands 1
ucraineană 1
Fantasy 1
##ниот 1
strada 1
##хи 1
##nation 1
Birmingham 1
wedi 1
Македонија 1
acteur 1
Lucky 1
222 1
passage 1
##mark 1
##шего 1
groep 1
propria 1
cancer 1
Frans 1
##gis 1
##nsi 1
##րի 1
trọng 1
##bol 1
207 1
sejak 1
कुमाँउ 1
Torres 1
Allah 1
hoe 1
namun 1
koju 1
Harvey 1
luvulla 1
rumah 1
omborida 1
##zon 1
##дағы 1
performances 1
##ത്തിന്റെ 1
occidental 1
##ismus 1
мебошад 1
kuid 1
##tva 1
##нің 1
στους 1
platform 1
тільки 1
sob 1
##ং 1
edad 1
János 1
horas 1
##ème 1
образования 1
ganz 1
##ām 1
Publishers 1
##ร 1
##하며 1
174 1
Tot 1
школу 1
ən 1
vitin 1
विकास 1
Race 1
##arna 1
Conseil 1
Werke 1
posible 1
romano 1
тыс 1
vastaan 1
Auguste 1
temas 1
quận 1
ambiente 1
particulier 1
##par 1
Gene 1
Titre 1
##лно 1
##ರಲ್ಲಿ 1
iba 1
kỳ 1
món 1
IPAC 1
tat 1
bataille 1
langau 1
Alta 1
따라 1
Oh 1
Petersburg 1
Հայաստանի 1
África 1
Counties 1
##nent 1
FK 1
saying 1
Thành 1
られる 1
Mind 1
তাঁর 1
Cultura 1
##ския 1
Turkish 1
##pos 1
173 1
Orleans 1
1960s 1
##ರಿ 1
##マ 1
niya 1
##jus 1
Ain 1
Synopsis 1
partner 1
founder 1
##ებული 1
##ях 1
1990s 1
Wind 1
##lare 1
Île 1
##tera 1
beispielsweise 1
movimento 1
timp 1
##jących 1
##טים 1
části 1
деген 1
##دان 1
школы 1
Francji 1
województwie 1
##ologia 1
projects 1
##iente 1
حال 1
##cina 1
Weg 1
haver 1
##४ 1
##isé 1
197 1
brasileiro 1
Javier 1
نادي 1
##ér 1
crisis 1
##ників 1
prominent 1
nguyên 1
сезоне 1
théâtre 1
bestand 1
minutos 1
quelle 1
kallt 1
భారత 1
lainnya 1
клуба 1
Supreme 1
bon 1
Klein 1
##শ 1
svoj 1
nouvelles 1
##fte 1
##들은 1
تک 1
##lls 1
##chu 1
схід 1
##tiques 1
##dora 1
Louisiana 1
##لم 1
##ffer 1
permite 1
skupiny 1
árið 1
Aircraft 1
ljudi 1
thân 1
##нде 1
giorni 1
##alt 1
gemeinsam 1
physical 1
##ره 1
серпня 1
Senior 1
dikenal 1
সাথে 1
appearances 1
песни 1
prej 1
##بي 1
става 1
игры 1
Indien 1
##ეს 1
abord 1
Upper 1
партии 1
bảo 1
##חה 1
إلا 1
Marx 1
kampung 1
oriental 1
Clarke 1
folgte 1
Provence 1
stäppklimat 1
Universitas 1
umumiy 1
veröffentlicht 1
##می 1
historique 1
tiek 1
##սի 1
တွင် 1
##yı 1
СРСР 1
команды 1
##بية 1
##ött 1
pont 1
Magnus 1
Орден 1
diğer 1
olaraq 1
ina 1
##തി 1
##な 1
artikkelen 1
Nombre 1
##्न 1
Luna 1
यो 1
waktu 1
##yar 1
μία 1
##دن 1
##ník 1
##ossa 1
##eron 1
##žu 1
Heaven 1
danach 1
slik 1
##ლის 1
گروه 1
sinds 1
Uni 1
হান 1
الثاني 1
Angelo 1
Ted 1
Member 1
medios 1
##ذ 1
##čio 1
knowledge 1
##gere 1
בבית 1
inside 1
とも 1
jugador 1
##erer 1
منذ 1
obres 1
Swiss 1
شود 1
сельских 1
illa 1
##льные 1
realizar 1
##നം 1
allora 1
AD 1
Musée 1
##liği 1
vooral 1
##nau 1
departementet 1
Тексерілді 1
trabalho 1
duo 1
バス 1
Price 1
членом 1
##cional 1
ju 1
бути 1
القرن 1
filem 1
##ём 1
Bowl 1
kus 1
عندما 1
mục 1
miembro 1
prova 1
##рна 1
által 1
##heden 1
extension 1
conta 1
เช่น 1
Xbox 1
##റ്റ് 1
communauté 1
##ining 1
##ючи 1
خان 1
према 1
Jose 1
samma 1
##asa 1
SR 1
##ovat 1
nhỏ 1
वर्ग 1
Baptiste 1
edu 1
##inu 1
compañía 1
wi 1
##vne 1
Rangers 1
брат 1
##fort 1
##нен 1
chamado 1
moet 1
నీటి 1
بتاریخ 1
card 1
Pulau 1
době 1
það 1
objet 1
navnet 1
SE 1
tinggi 1
##idea 1
Carol 1
цьому 1
ăn 1
punti 1
өзен 1
olup 1
##cích 1
Common 1
жовтня 1
approach 1
literature 1
populasyon 1
Wu 1
peso 1
##വും 1
करते 1
Once 1
sadrži 1
Creative 1
potential 1
boleh 1
Sara 1
##aron 1
binh 1
##ției 1
nordvästra 1
არ 1
Clara 1
điện 1
bắc 1
##ход 1
##rze 1
##tung 1
zdobył 1
gminy 1
meisten 1
capacity 1
siste 1
вилояти 1
lassen 1
Отечественной 1
verde 1
કરવામાં 1
pikeun 1
gun 1
Soc 1
nde 1
Той 1
Pete 1
proyecto 1
bolo 1
Armee 1
Albums 1
##َ 1
Friends 1
Văn 1
Manhattan 1
северо 1
Vila 1
Falls 1
metà 1
Reserve 1
kaum 1
##pta 1
rules 1
##uni 1
unui 1
##buch 1
revealed 1
##િક 1
formal 1
일본 1
##ery 1
لاعب 1
junho 1
início 1
aide 1
جميع 1
начал 1
Questo 1
Nell 1
sole 1
समय 1
##weise 1
Arean 1
480 1
dun 1
##эл 1
##уд 1
Gerhard 1
Amy 1
##juk 1
##ներում 1
eri 1
##cznego 1
Julian 1
فقط 1
##wskiego 1
نظام 1
Bộ 1
commonly 1
##역 1
egen 1
מן 1
objekata 1
đông 1
gräsmarker 1
травня 1
стороны 1
часу 1
РСФСР 1
##but 1
három 1
علم 1
##וח 1
अंग्रेजी 1
promotion 1
##ував 1
plantas 1
##eto 1
Season 1
##७ 1
##nă 1
cells 1
دوره 1
##else 1
##ode 1
##zne 1
library 1
positions 1
formas 1
нового 1
Grund 1
transferred 1
materials 1
tree 1
focus 1
##ьный 1
##ето 1
file 1
##კის 1
account 1
##oka 1
rodziny 1
##eet 1
юго 1
sastavu 1
يناير 1
պետական 1
acuerdo 1
aurait 1
##ових 1
espèces 1
முதல் 1
bases 1
dix 1
جامعة 1
kế 1
поради 1
ancak 1
amore 1
Как 1
континентан 1
##ík 1
Each 1
industria 1
américaine 1
आहेत 1
##čil 1
187 1
##rov 1
longitud 1
##logía 1
##zan 1
Noord 1
Notes 1
położona 1
Paz 1
mål 1
فوق 1
##gle 1
OF 1
##jące 1
המאה 1
##iad 1
Landes 1
studi 1
জনসংখ্যা 1
poor 1
بار 1
##ющие 1
বর্গ 1
punk 1
fare 1
vielen 1
blue 1
5th 1
##iidae 1
##த்த 1
tổng 1
Malta 1
##nių 1
آثار 1
##ура 1
если 1
##וי 1
Auto 1
vant 1
meet 1
##పు 1
ataque 1
cứu 1
utilisé 1
##ству 1
Toledo 1
Spieler 1
Studium 1
##éu 1
##ლების 1
phòng 1
vittoria 1
##uden 1
surtout 1
probably 1
Florence 1
bandar 1
сайт 1
estación 1
##ény 1
##skap 1
그리고 1
##ര 1
##вна 1
Rain 1
Philipp 1
##ակի 1
##ಯನ್ನು 1
officially 1
teilweise 1
186 1
##нення 1
französischen 1
scientific 1
##ските 1
##lma 1
##kunde 1
Change 1
もある 1
forward 1
##ált 1
smaller 1
##nium 1
grupy 1
##ир 1
##ários 1
##stone 1
##sha 1
parmi 1
ảnh 1
Dog 1
Pod 1
green 1
##학 1
participar 1
##льный 1
soldiers 1
équipements 1
tots 1
SPD 1
Irlanda 1
Through 1
бассейнĕ 1
საქართველოს 1
build 1
tiêu 1
Nash 1
сиха 1
ander 1
kecil 1
Finale 1
##лена 1
tentang 1
##ания 1
Lieutenant 1
október 1
##ље 1
attore 1
autour 1
இருந்து 1
##īja 1
##として 1
##тки 1
urban 1
##шие 1
waarbij 1
##eten 1
Chapter 1
میکنند 1
Questa 1
Autor 1
Sci 1
221 1
dedicated 1
Ngày 1
##گان 1
období 1
Stein 1
199 1
semua 1
Halle 1
tumani 1
density 1
Musical 1
kommen 1
століття 1
##ικό 1
tìm 1
Verenigde 1
##ln 1
kein 1
##كي 1
липня 1
Zeitschrift 1
##nova 1
προς 1
Hoàng 1
వ్యవసాయ 1
designated 1
Ses 1
##lda 1
##ült 1
##עים 1
tekst 1
pass 1
zespołu 1
silver 1
##рон 1
1100 1
Proceedings 1
Madison 1
مردم 1
いて 1
renamed 1
meget 1
tình 1
209 1
Република 1
Heinz 1
##шен 1
Generation 1
construit 1
firm 1
المركز 1
الأسر 1
Pink 1
segons 1
##ਜ 1
Rogers 1
binne 1
steeds 1
Dünya 1
##enta 1
hebbt 1
##лина 1
except 1
servizio 1
Alejandro 1
principe 1
அரசு 1
Bahn 1
##த்தை 1
blanc 1
Франции 1
##ray 1
##ever 1
méter 1
Holmes 1
##టి 1
పబ్లిక్ 1
Alexandra 1
divided 1
##km 1
água 1
విద్యా 1
awards 1
##рат 1
##geschichte 1
primero 1
vis 1
amerikanske 1
##יב 1
vaak 1
##ικού 1
198 1
tych 1
Minas 1
lac 1
Liu 1
dead 1
تو 1
этих 1
pressure 1
##ført 1
##zeko 1
seda 1
##նական 1
1786 1
##차 1
brand 1
Düsseldorf 1
situado 1
svenska 1
ただし 1
##ză 1
##چ 1
##σει 1
Christoph 1
Sullivan 1
##có 1
ireo 1
##рд 1
urbo 1
1770 1
##ást 1
##kia 1
Persian 1
يوليو 1
##con 1
##κ 1
Right 1
اپنے 1
Off 1
pou 1
algo 1
Episode 1
Село 1
группа 1
այլ 1
##rah 1
اول 1
nimi 1
sons 1
formación 1
##рии 1
council 1
komen 1
##يه 1
Mobile 1
Henta 1
##ijas 1
temperature 1
##kej 1
filho 1
bestelako 1
Biblioteca 1
##μ 1
expression 1
##tit 1
solar 1
objetivo 1
Це 1
Atlético 1
تلك 1
collaboration 1
##رات 1
światowej 1
Where 1
jih 1
##щим 1
दक्षिण 1
1750 1
öst 1
##czna 1
localizada 1
##સ 1
Académie 1
189 1
241 1
##ッド 1
##১ 1
Davies 1
##ø 1
الذين 1
escrita 1
хӀоттам 1
##стан 1
미국 1
sông 1
##lagt 1
Desember 1
енгл 1
ордена 1
##დი 1
terminal 1
Call 1
##או 1
Ramón 1
druge 1
moving 1
##ಾದ 1
kama 1
##ુ 1
získal 1
ibi 1
Gmina 1
Бұл 1
компании 1
училище 1
parc 1
đặt 1
##ép 1
grave 1
áreas 1
singolo 1
##zka 1
юьртан 1
evitar 1
организации 1
##ningar 1
flight 1
officers 1
μεταξύ 1
Башкортостан 1
lack 1
בכל 1
##ің 1
quais 1
अधिक 1
incluyendo 1
Christine 1
##şı 1
quickly 1
##šu 1
danske 1
##లోను 1
gần 1
travel 1
viel 1
sets 1
##கம் 1
ability 1
Под 1
melhor 1
ig 1
Miles 1
episodes 1
awal 1
директор 1
2020 1
links 1
pemain 1
의해 1
##mai 1
Executive 1
##zni 1
191 1
bestaan 1
grew 1
Julio 1
Европы 1
insee 1
##isti 1
titled 1
했다 1
réseau 1
либо 1
Mother 1
trial 1
job 1
zeigt 1
##сем 1
Cinema 1
##tif 1
##аны 1
desse 1
##në 1
##에서는 1
lane 1
світу 1
##album 1
gut 1
कारण 1
##ave 1
Abdul 1
##ense 1
##ьного 1
##وع 1
##оў 1
actualmente 1
Был 1
Segons 1
unde 1
Full 1
tuttavia 1
##eken 1
##ецца 1
Double 1
avrebbe 1
##ица 1
secret 1
площадь 1
ける 1
##anza 1
quartier 1
zonas 1
cá 1
##하지 1
cukuik 1
sebelum 1
##ован 1
loc 1
وچّ 1
##mientu 1
Evolution 1
créé 1
196 1
sydlig 1
Morning 1
216 1
##९ 1
Bình 1
moral 1
կը 1
Serra 1
pasó 1
Beck 1
audio 1
planeta 1
##ัน 1
gyda 1
జనగణన 1
Fransän 1
száma 1
вже 1
této 1
Nga 1
barubah 1
##tja 1
Heidelberg 1
follows 1
##նել 1
##zación 1
Text 1
kuni 1
##નું 1
historic 1
университет 1
##führung 1
join 1
жителей 1
##ός 1
sasuatu 1
pacahan 1
червня 1
##כו 1
Punta 1
XXI 1
##нца 1
округов 1
considera 1
biến 1
auteurs 1
##льная 1
##cum 1
##bou 1
Jefferson 1
Код 1
##rés 1
един 1
##ított 1
##யை 1
actriz 1
Eurovision 1
##וק 1
##כר 1
Peak 1
Katalog 1
conducted 1
##onen 1
भाषाया 1
##рка 1
давлатӣ 1
Angleterre 1
mixed 1
##ėjo 1
naseljeno 1
HC 1
recently 1
mouvement 1
##ional 1
Córdoba 1
пол 1
luogo 1
##ונים 1
##аш 1
sieben 1
روز 1
monte 1
Cina 1
##رت 1
214 1
##rim 1
mesta 1
Rachel 1
say 1
letzte 1
academic 1
Xavier 1
antalet 1
mewn 1
##ాన్ని 1
често 1
##verk 1
##بی 1
diffusion 1
gdy 1
mercado 1
226 1
pelasi 1
când 1
menys 1
زندگی 1
vennero 1
ordered 1
gamle 1
MHz 1
becomes 1
eskualdean 1
кг 1
##μη 1
Wie 1
ajuda 1
épouse 1
##град 1
являются 1
needed 1
asya 1
##ické 1
##ίες 1
Lang 1
Cole 1
##tada 1
इसके 1
ideas 1
##өн 1
##uu 1
ضد 1
drive 1
пред 1
Château 1
540 1
##לות 1
##마 1
Pittsburgh 1
районі 1
ginhatag 1
##sberg 1
Irak 1
pagkayana 1
offers 1
keep 1
unei 1
falta 1
þar 1
سه 1
Beijing 1
септември 1
вобласці 1
mucho 1
danych 1
workers 1
Schleswig 1
##६ 1
derde 1
لكرة 1
పథకం 1
mintaqasida 1
László 1
PR 1
عمر 1
rozlohu 1
street 1
##oti 1
Parque 1
será 1
Bros 1
бер 1
Dos 1
##skou 1
Sungai 1
encuentran 1
Owen 1
nove 1
dessa 1
менее 1
Quebec 1
##жен 1
ہی 1
sales 1
২০০০ 1
Lu 1
Virgin 1
floor 1
որոնք 1
##ttes 1
NCAA 1
يقدر 1
হয়ে 1
share 1
रुपय् 1
##eer 1
Golf 1
##ად 1
##դի 1
##ću 1
Pope 1
stanie 1
grootste 1
ihnen 1
Раççей 1
##ыш 1
##tino 1
науки 1
gioco 1
Ankara 1
Dương 1
##ਦ 1
thu 1
Yale 1
nữ 1
personnel 1
introduction 1
ilay 1
##mak 1
##ciji 1
Storm 1
progetto 1
275 1
##rir 1
removed 1
Augustus 1
serial 1
##ване 1
rare 1
Luxembourg 1
##ými 1
stone 1
Após 1
##nir 1
defined 1
بیشتر 1
Fauna 1
Neue 1
mang 1
regiji 1
##ével 1
##тел 1
nordöstra 1
##בל 1
##rare 1
angol 1
##name 1
Koch 1
##zony 1
##eng 1
##ære 1
것으로 1
##ئة 1
##قل 1
Adrian 1
Organization 1
daher 1
settlement 1
##cé 1
esti 1
బ్యాంకు 1
bài 1
Gino 1
αυτή 1
##park 1
родился 1
деҳа 1
mely 1
etwas 1
Parigi 1
232 1
Command 1
Hard 1
Biology 1
##െ 1
pasukan 1
алабы 1
##kirche 1
Rural 1
##late 1
royal 1
Сергей 1
Arkansas 1
canciones 1
##gues 1
coming 1
Linie 1
Première 1
Car 1
situación 1
##bé 1
लिपा 1
##vie 1
Portal 1
##עות 1
하는 1
сил 1
propia 1
fim 1
möglich 1
terenie 1
parking 1
##жение 1
##нски 1
okresie 1
Ruth 1
Bass 1
##વા 1
niini 1
اشاره 1
##اه 1
hòa 1
Pont 1
Firenze 1
sydvästra 1
lb 1
##던 1
##vao 1
##יקה 1
310 1
døde 1
##lege 1
différents 1
##нные 1
BMW 1
stellte 1
##вая 1
místo 1
Money 1
##тың 1
bardzo 1
Hänen 1
##kle 1
Pyrénées 1
##tio 1
tinh 1
waarvan 1
##jal 1
విద్యుత్ 1
##gruppe 1
настоящее 1
squadre 1
roles 1
##생 1
##maal 1
##tare 1
archaeological 1
##בת 1
regiunea 1
##entes 1
255 1
phong 1
Tierra 1
تكون 1
presenti 1
immediately 1
##rch 1
##னார் 1
crew 1
mujer 1
болды 1
##mıştır 1
ఫోన్ 1
gauche 1
када 1
##جة 1
تیم 1
##ట 1
Stanford 1
longo 1
carta 1
##anse 1
##nit 1
paese 1
షెడ్యూల్డ్ 1
##fan 1
tamin 1
ერთ 1
команда 1
##dera 1
Grey 1
##вно 1
Segun 1
queste 1
##dang 1
Mercury 1
##cada 1
##enie 1
estão 1
##mesi 1
автор 1
տվյալներով 1
##теля 1
##bourg 1
Wasser 1
Cap 1
toho 1
intended 1
वे 1
енеді 1
amount 1
##uce 1
##نه 1
##ington 1
##uka 1
True 1
Bangladesh 1
defensa 1
zudem 1
tài 1
Yangi 1
pris 1
##лася 1
alone 1
##ilor 1
destroyed 1
sg 1
nya 1
районы 1
##ER 1
följande 1
Phillips 1
##iant 1
olur 1
##으며 1
Europy 1
##ரம் 1
کرده 1
Église 1
materiale 1
متوسط 1
annak 1
thi 1
Mountains 1
Walt 1
pi 1
##טר 1
Кроме 1
prince 1
Великой 1
zehn 1
##ages 1
housing 1
gminie 1
llegar 1
3ᵉ 1
##são 1
Jeanne 1
Mason 1
fonction 1
IP 1
##ekt 1
kleinen 1
##န် 1
spider 1
prie 1
##rów 1
måtte 1
##sit 1
##ած 1
interesse 1
Performance 1
igen 1
split 1
ثبت 1
Clinton 1
##ied 1
##rang 1
##ист 1
armas 1
Moskva 1
370 1
participated 1
##vers 1
##ني 1
できる 1
např 1
hombre 1
итә 1
Because 1
##can 1
leaders 1
##jena 1
Sua 1
organización 1
sarebbe 1
Constitution 1
##ába 1
compagnie 1
Brandenburg 1
##് 1
Esto 1
##ncy 1
ఆసుపత్రి 1
##jima 1
Religion 1
Nos 1
##டி 1
upper 1
##aine 1
Zaragoza 1
Jeux 1
##sce 1
prodotto 1
에서 1
risk 1
##בי 1
Shanghai 1
Food 1
maggior 1
nisu 1
ਕੀਤਾ 1
Xã 1
##ической 1
##sma 1
##ေ 1
것이다 1
లేని 1
Weekly 1
##pers 1
break 1
Link 1
##יק 1
estaban 1
Sprache 1
tuổi 1
baixo 1
##רו 1
ҳайати 1
##fy 1
##ví 1
##të 1
##카 1
##uli 1
Más 1
Ecology 1
operating 1
тора 1
##ణ 1
##iza 1
בעיקר 1
youth 1
##هایی 1
според 1
Helsingfors 1
kjer 1
##kken 1
Bachelor 1
Bruxelles 1
ಎಂಬ 1
впервые 1
victoire 1
honneur 1
2018년 1
##וש 1
квітня 1
prije 1
זכה 1
سبتمبر 1
स्थित 1
##kker 1
País 1
##cular 1
хьалхара 1
##wang 1
Suisse 1
iglesia 1
Ichneumonidae 1
місті 1
##θηκαν 1
emperador 1
vorm 1
##cimento 1
##ního 1
trata 1
##ਦਾ 1
pouco 1
Etazonia 1
これは 1
420 1
PMC 1
##tų 1
nada 1
tư 1
##assa 1
##tea 1
##kur 1
ряд 1
rad 1
ökenklimat 1
chiếc 1
##êu 1
Étienne 1
##nega 1
actress 1
hiduik 1
Know 1
gehören 1
Mozart 1
##ように 1
phẩm 1
##tott 1
báo 1
dias 1
reach 1
أبو 1
besuchte 1
campagne 1
έχουν 1
fecha 1
##די 1
več 1
Internationale 1
giá 1
যে 1
pari 1
##cta 1
Got 1
planned 1
odnosno 1
##್ಯ 1
već 1
mwaka 1
Enrico 1
Tweede 1
##čku 1
widely 1
hora 1
facilities 1
елгы 1
##enberg 1
##sman 1
##тели 1
goed 1
##tät 1
Twitter 1
##light 1
acid 1
Cependant 1
##ತು 1
Analysis 1
Italiji 1
vari 1
##eld 1
innan 1
Industrial 1
partida 1
Blake 1
zuvor 1
##lk 1
##tors 1
##iek 1
Праверана 1
##etto 1
##lir 1
##ством 1
creación 1
zoon 1
वर्ष 1
458 1
##chter 1
있었다 1
Piano 1
terdiri 1
Zwischen 1
AM 1
britannique 1
Alonso 1
जुन 1
لیستی 1
isso 1
##bis 1
instrument 1
worrn 1
Iglesia 1
principais 1
Tres 1
seule 1
Avery 1
saint 1
Aaron 1
ছিলেন 1
##dzie 1
Case 1
Sub 1
gelang 1
ایتالیا 1
tipos 1
Inter 1
tidigare 1
Hungarian 1
వారం 1
Commissioner 1
##aran 1
##лата 1
##ода 1
дейін 1
Living 1
względem 1
##чески 1
##zak 1
поле 1
actually 1
##ея 1
##koj 1
##ums 1
Athletic 1
##ניות 1
っていた 1
##জ 1
##ents 1
equipe 1
жылдан 1
##rini 1
238 1
Handbook 1
##zą 1
জেলা 1
Paula 1
Departamento 1
##ಡ್ 1
Објектот 1
část 1
Мария 1
när 1
territory 1
pagina 1
چک 1
Egy 1
pwovens 1
Dylan 1
##uksen 1
йылдың 1
##ives 1
Montana 1
communium 1
habitat 1
##ոս 1
districts 1
Erich 1
owner 1
223 1
##вых 1
Edmund 1
けて 1
Palazzo 1
moglie 1
hinaus 1
місто 1
características 1
myöhemmin 1
##тора 1
giving 1
Mali 1
##ening 1
bên 1
setzte 1
västlig 1
Trophy 1
canção 1
##დის 1
الجهاز 1
##وت 1
きな 1
##aceae 1
मू 1
##anti 1
##ení 1
edifici 1
offer 1
سوْن 1
footballer 1
Tor 1
##čně 1
Claire 1
##íes 1
##ές 1
##uose 1
Zeitung 1
Bang 1
musée 1
##فر 1
frae 1
gara 1
##ാ 1
أيضا 1
Wikipédia 1
##ത്ത് 1
##ľ 1
purchased 1
tales 1
militares 1
Alt 1
dự 1
Joel 1
אלו 1
Among 1
Tal 1
Armstrong 1
##ههای 1
serves 1
موربّع 1
giovane 1
nda 1
obtient 1
##ונה 1
##מד 1
серии 1
للإحصاء 1
Через 1
fundada 1
Setelah 1
тот 1
##డ్ 1
##inn 1
##aro 1
Soest 1
asl 1
Scarabaeidae 1
##tvo 1
проект 1
##êm 1
Shah 1
vele 1
194 1
##در 1
lokal 1
Spirit 1
یئرلشیب 1
Sammlung 1
име 1
##kih 1
klasse 1
Résumé 1
její 1
##ька 1
Bryan 1
##tika 1
لكل 1
država 1
1774 1
##ாக 1
leaves 1
##ால் 1
equipment 1
##стер 1
namnet 1
##koa 1
Roku 1
critical 1
obtenir 1
болгон 1
Repubblica 1
##ცია 1
பல 1
therefore 1
Pradesh 1
1782 1
##ニー 1
København 1
Physics 1
##мена 1
başladı 1
handelt 1
mari 1
команду 1
##lama 1
##dien 1
baş 1
Рэспублікі 1
sách 1
demande 1
Köyün 1
cura 1
Strecke 1
##encia 1
Plata 1
Zhang 1
cela 1
torna 1
Montréal 1
##cchi 1
CEO 1
Weber 1
##day 1
visual 1
Karen 1
листопада 1
जा 1
##ләр 1
purpose 1
##тон 1
Università 1
##íos 1
##eden 1
inne 1
esimerkiksi 1
Präsident 1
Системаи 1
##нього 1
πρώτη 1
Москве 1
ССР 1
Projekt 1
ते 1
##به 1
##enen 1
cinque 1
Simpson 1
מלחמת 1
##овий 1
befinden 1
берегу 1
masyarakat 1
детей 1
धर्म 1
setiap 1
mulai 1
იგი 1
Stevens 1
##ität 1
comando 1
##ık 1
Dollar 1
Away 1
218 1
април 1
Hungary 1
cars 1
##tag 1
baik 1
recursos 1
##icht 1
machte 1
##ování 1
artistas 1
nổi 1
Mayo 1
##тика 1
Philosophy 1
lisäksi 1
civile 1
сборной 1
males 1
##جر 1
fellow 1
conflict 1
begon 1
typically 1
##bad 1
barat 1
Say 1
##lna 1
tik 1
eigene 1
##дық 1
##ussa 1
θέση 1
Suomessa 1
poet 1
rive 1
zwar 1
albumet 1
בני 1
##ovala 1
##مر 1
Toshkent 1
##esse 1
ice 1
губернии 1
##urile 1
organized 1
Nevada 1
cuerpo 1
להיות 1
Escuela 1
MC 1
Bahnhof 1
##ření 1
440 1
voltak 1
שלא 1
فقد 1
გვ 1
olmuşdur 1
votes 1
branch 1
Monaco 1
mobile 1
населённых 1
composition 1
Face 1
felt 1
##ही 1
karo 1
Liliopsida 1
varie 1
institutions 1
Св 1
##ении 1
początku 1
##ьно 1
##kse 1
schrieb 1
તે 1
хабарнигории 1
##ալ 1
Biôgrafia 1
things 1
##되는 1
Laut 1
Auflage 1
институт 1
##בים 1
Zuid 1
Scientific 1
##ière 1
ერთი 1
##zte 1
servicio 1
##tów 1
edat 1
##మ 1
##رية 1
yksi 1
girl 1
pista 1
##nsis 1
системи 1
Derby 1
##kant 1
ਕਿ 1
multe 1
CA 1
Todd 1
sehen 1
##zna 1
birth 1
Bruder 1
condition 1
Pat 1
devido 1
ఆఫీసు 1
Ahmad 1
##nő 1
Armenia 1
##uur 1
Next 1
deutsch 1
##ckiego 1
שהוא 1
##ък 1
adopted 1
ראש 1
##اج 1
Symphony 1
hour 1
##owo 1
Bristol 1
##ição 1
हुए 1
управления 1
などを 1
آپ 1
فيه 1
##νο 1
Федерацияһы 1
цей 1
acqua 1
ավելի 1
häufig 1
Bản 1
grupa 1
##12 1
##win 1
òg 1
количество 1
##жно 1
Kongo 1
když 1
قائمة 1
кадастрының 1
당시 1
sistemas 1
##য়ে 1
##ről 1
mida 1
tấn 1
publié 1
##ικών 1
obyvatel 1
Sicilia 1
tornar 1
##κα 1
Granada 1
##gina 1
nhóm 1
воєводства 1
Ville 1
##nad 1
Rev 1
XIXᵉ 1
##mentos 1
##book 1
deriva 1
można 1
##ட்டு 1
Why 1
Colonel 1
Norwegian 1
ikinci 1
##gebiet 1
##ंत 1
##igung 1
premières 1
Artes 1
పోస్టాఫీసు 1
ইলাতাই 1
rival 1
##ーン 1
oblast 1
Kominote 1
##razione 1
sastav 1
1772 1
##ёр 1
defeat 1
##שות 1
شیمی 1
assigned 1
počtu 1
##נג 1
humanos 1
regime 1
Comité 1
lequel 1
zelf 1
1778 1
artikel 1
##jom 1
armes 1
memoria 1
ארצות 1
##él 1
дома 1
##hte 1
##wick 1
stammt 1
jolloin 1
hindi 1
muda 1
Obec 1
sociales 1
plupart 1
женщин 1
##ello 1
kell 1
##ote 1
##ám 1
ilçesine 1
2500 1
##్ 1
ในปี 1
expansion 1
##rten 1
Voice 1
sijaitsee 1
Độ 1
cependant 1
##രം 1
##vien 1
Romano 1
Fine 1
Map 1
Saturday 1
##rul 1
semana 1
дохил 1
Have 1
Karriere 1
##nka 1
χρόνια 1
hänet 1
##ίου 1
Reed 1
kvadrat 1
reviews 1
pluse 1
Bernhard 1
##bres 1
Prof 1
##ായി 1
clear 1
тим 1
USD 1
##では 1
bhí 1
Kind 1
##கிறது 1
##jev 1
##rri 1
Nuo 1
һаны 1
##ति 1
износи 1
revenuo 1
Член 1
Печора 1
skalbaggsart 1
##sun 1
なる 1
##ынан 1
6th 1
##nelle 1
einigen 1
248 1
Utrecht 1
##즈 1
tilbake 1
força 1
##isia 1
Bible 1
бас 1
circuit 1
conseil 1
ці 1
provincial 1
Италији 1
dau 1
Tuy 1
hen 1
##сно 1
##inga 1
Fisher 1
##grafia 1
mentioned 1
gene 1
blood 1
effort 1
##עת 1
structures 1
образование 1
ensin 1
baina 1
continua 1
##yev 1
Charts 1
fevereiro 1
escrito 1
lake 1
##דו 1
battaglia 1
accepted 1
Col 1
Geological 1
Number 1
Hessen 1
vous 1
Ferenc 1
води 1
850 1
miesto 1
Marcos 1
يونيو 1
Afrikaanse 1
nashrida 1
طور 1
Greatest 1
shumë 1
##ș 1
read 1
Frederik 1
##ことから 1
процени 1
tar 1
छ्येलेज्या 1
ennen 1
##TA 1
gives 1
##rist 1
jabatan 1
энциклопедиясы 1
1781 1
viết 1
хужалығы 1
tương 1
pan 1
samhällen 1
##की 1
foot 1
Hải 1
##ations 1
234 1
##gono 1
##tad 1
enige 1
Viktor 1
آب 1
Andrés 1
всё 1
##용 1
sezon 1
болады 1
Ángel 1
Rei 1
مركز 1
җанисәп 1
##amt 1
##세 1
שונים 1
mor 1
##ાર 1
ਉਸ 1
##mist 1
##یں 1
##단 1
communication 1
taas 1
بزرگ 1
##Г 1
έγινε 1
possibile 1
teacher 1
tandis 1
Aquest 1
Voor 1
IF 1
amikor 1
##வில் 1
Panama 1
##iser 1
plantes 1
aynı 1
соли 1
engineering 1
##upa 1
dood 1
tredje 1
##esen 1
##ьных 1
1777 1
##hkan 1
Marseille 1
জুন 1
مانند 1
declared 1
##ького 1
##ística 1
##bot 1
یئر 1
tome 1
##րել 1
##нский 1
##coli 1
##ckt 1
conference 1
captured 1
electric 1
##tom 1
futbol 1
231 1
Stelle 1
אולם 1
accident 1
frac 1
může 1
opština 1
archive 1
Augusta 1
Revista 1
میٹر 1
Thomson 1
lövskog 1
##bek 1
Spiele 1
formes 1
##فت 1
medan 1
Staten 1
##ップ 1
##ES 1
##ներից 1
há 1
russe 1
dirigida 1
Cat 1
genera 1
##uses 1
välja 1
##wagen 1
Ellen 1
frem 1
йылғаһы 1
DE 1
##ニア 1
Americans 1
بودند 1
##ース 1
grund 1
sträcker 1
Gómez 1
##zott 1
Mesa 1
##чне 1
manière 1
volumes 1
##ws 1
profit 1
వాణిజ్య 1
guide 1
Firma 1
kar 1
acting 1
##ious 1
começou 1
ضمن 1
basic 1
##uno 1
Cold 1
böyük 1
וכן 1
staan 1
##aste 1
sept 1
texte 1
##λή 1
dark 1
Pusat 1
рода 1
mini 1
312 1
Rita 1
الوطنية 1
۱۲ 1
##iej 1
имя 1
amerikanischen 1
##тин 1
305 1
utara 1
títol 1
sett 1
##րում 1
alongside 1
Paraguay 1
tip 1
iaitu 1
leadership 1
роман 1
Bern 1
253 1
##oc 1
Yemen 1
mponina 1
շրջանում 1
##cze 1
##pora 1
##fahrt 1
Gibson 1
sát 1
##usta 1
##cza 1
Rotterdam 1
historii 1
динамикасы 1
Late 1
اصلی 1
Secondo 1
mesure 1
գյուղ 1
декември 1
filmen 1
Documents 1
sudah 1
Ya 1
muitos 1
##sjon 1
##iku 1
Германии 1
чемпионата 1
Greece 1
crítica 1
октомври 1
look 1
Oro 1
##ಸಿ 1
naselja 1
chitarra 1
##λος 1
##ğa 1
واحد 1
mistrzostw 1
document 1
derfor 1
Hits 1
Bordeaux 1
ауыл 1
Stage 1
##owano 1
أغسطس 1
Diamond 1
##nien 1
Prins 1
Betrieb 1
produção 1
respectively 1
##ńskim 1
versão 1
##нных 1
aumento 1
sakop 1
svoju 1
##tka 1
Cao 1
Andre 1
##ією 1
passou 1
Insee 1
##ují 1
##эй 1
fell 1
дела 1
##вен 1
##zor 1
प्रकार 1
genutzt 1
##née 1
##oga 1
ديسمبر 1
gleichen 1
##お 1
amour 1
skupina 1
wśród 1
##نده 1
isola 1
Politics 1
##ота 1
super 1
όταν 1
otrzymał 1
Dunay 1
giao 1
слова 1
Istanbul 1
##они 1
Total 1
itt 1
gained 1
Nielsen 1
округ 1
hennes 1
Drive 1
Week 1
пункт 1
линии 1
##oru 1
nachází 1
difficult 1
mountain 1
září 1
hoy 1
GP 1
bahawa 1
πιο 1
Vertrag 1
communities 1
peyi 1
##교 1
savannskog 1
Superior 1
relation 1
תל 1
##tne 1
##rma 1
##itt 1
ranked 1
Франції 1
##მის 1
##sey 1
בעקבות 1
entstanden 1
ofta 1
##pit 1
##들의 1
cannot 1
Toulouse 1
##эг 1
##ић 1
##тен 1
##גה 1
برابر 1
continues 1
estimated 1
Legend 1
##сия 1
egiten 1
término 1
því 1
podataka 1
వ్యవసాయం 1
Tage 1
erreicht 1
##lea 1
drugim 1
##uru 1
##сының 1
##ани 1
Emily 1
trang 1
##ática 1
##yu 1
##ческое 1
##mbo 1
жена 1
alrededor 1
Honda 1
##өр 1
ciudá 1
budget 1
CC 1
أحمد 1
memory 1
##lash 1
##Н 1
##чик 1
fronte 1
dagen 1
combined 1
##lic 1
står 1
előtt 1
##دار 1
paso 1
quả 1
đình 1
##lərinin 1
байна 1
##сында 1
avere 1
##vant 1
relative 1
investigación 1
れる 1
Convention 1
kapal 1
territori 1
болон 1
##ition 1
##ăн 1
##lene 1
Wells 1
##ünde 1
gh 1
dados 1
Inlandsklimat 1
тысяч 1
ngoài 1
mensen 1
juny 1
развития 1
principalement 1
Ini 1
##zett 1
239 1
Raven 1
largely 1
##larını 1
২০০৬ 1
Springs 1
##ന 1
possède 1
várias 1
##권 1
Foster 1
##drag 1
בישראל 1
wurdt 1
семье 1
ordine 1
##ಿಕ 1
Ulrich 1
264 1
chơi 1
desta 1
227 1
responsable 1
Medien 1
paositra 1
##Ф 1
pintura 1
Schweizer 1
##ూ 1
například 1
været 1
Tel 1
входит 1
اسلامی 1
artistes 1
##ról 1
عضو 1
където 1
ಮೇಲೆ 1
hip 1
Kloster 1
ոչ 1
##סה 1
Portland 1
phục 1
zichligi 1
Tales 1
365 1
musim 1
##신 1
##tha 1
##kke 1
serien 1
##iju 1
##ソン 1
yng 1
بسبب 1
minuta 1
contemporary 1
gaat 1
##است 1
##ობა 1
vua 1
makanan 1
distriktet 1
375 1
Linnaeus 1
##eza 1
##ാം 1
الثامنة 1
##כי 1
teraka 1
Devil 1
často 1
Maret 1
##سة 1
Hunt 1
hosted 1
Danach 1
##ば 1
##اة 1
appelé 1
Birds 1
kékeré 1
sentido 1
کردہ 1
##zny 1
##igkeit 1
##sinin 1
##ču 1
Она 1
importants 1
remain 1
##dge 1
agreement 1
##erie 1
односно 1
uomini 1
mee 1
проживали 1
##կի 1
##xes 1
Powell 1
goes 1
stellt 1
József 1
Ka 1
##ದು 1
##nter 1
Carabidae 1
baie 1
##ळ 1
sitä 1
Richmond 1
SV 1
umur 1
داخل 1
##ერი 1
Brasilien 1
properties 1
proses 1
lhe 1
val 1
ort 1
##ít 1
##sió 1
##zem 1
урынлашҡан 1
województwa 1
Officer 1
tax 1
Eyes 1
ro 1
##ает 1
completa 1
##فی 1
Ad 1
Harald 1
geonames 1
##ματος 1
lago 1
స్టేషన్ 1
Klub 1
ভারতর 1
megyében 1
avaient 1
пр 1
पश्चिम 1
##연 1
stehen 1
Alberta 1
amerikai 1
##rski 1
##τή 1
recognized 1
város 1
suivante 1
signal 1
poate 1
##lung 1
##cano 1
Venus 1
Mitglieder 1
##दा 1
ਉਹ 1
##니 1
##logi 1
Godine 1
##sini 1
realizado 1
Ersten 1
Regno 1
aga 1
naturlig 1
weight 1
##šanas 1
batu 1
outra 1
اگر 1
##코 1
ait 1
Teheran 1
roll 1
265 1
بسیار 1
contiene 1
muchas 1
##room 1
##ического 1
rajono 1
mora 1
tā 1
Ahmed 1
##ык 1
##פ 1
دون 1
##פן 1
fece 1
المركزي 1
yards 1
linii 1
Industry 1
уйăхĕн 1
ìgbàjá 1
somit 1
kaodim 1
све 1
როგორც 1
##uhan 1
##ellen 1
plánẹ́tì 1
##행 1
Portuguese 1
nagusia 1
Kultur 1
proces 1
Flight 1
Согласно 1
гол 1
insektsart 1
آلمان 1
##ლა 1
ástẹ́rọ́ìdì 1
##कार 1
Nebraska 1
##يس 1
##վ 1
##šla 1
growing 1
figlia 1
comandante 1
alles 1
Castilla 1
##flugor 1
nhiệt 1
hát 1
govern 1
دوم 1
đưa 1
agreed 1
cea 1
ეს 1
##ihin 1
##öt 1
Ấn 1
##ಯಲ್ಲಿ 1
##oria 1
liv 1
1773 1
Arsenal 1
##ots 1
##nae 1
##ード 1
##yə 1
Советского 1
##ξε 1
membri 1
जन्म 1
##קת 1
##ची 1
meio 1
presence 1
ਗਿਆ 1
generation 1
##rdo 1
##рија 1
eða 1
통해 1
Labour 1
بوده 1
##kseen 1
spread 1
262 1
##hou 1
Syria 1
Wing 1
Crown 1
nació 1
##fat 1
metų 1
giữ 1
##tettiin 1
##телем 1
hiru 1
Nat 1
sieglu 1
##іс 1
talatak 1
compared 1
Tyler 1
område 1
Quan 1
lokale 1
##nyt 1
##wać 1
Tai 1
Fiction 1
##gra 1
##elli 1
Yves 1
մինչև 1
Annie 1
laget 1
Work 1
composto 1
Regions 1
##ären 1
##ixen 1
228 1
perioden 1
clase 1
##wing 1
Bahasa 1
##kich 1
oest 1
##omo 1
##niki 1
administrativa 1
метр 1
svezi 1
Curtis 1
مما 1
Chemical 1
##amen 1
##ungan 1
komot 1
vývoj 1
dado 1
##sında 1
##ира 1
Карл 1
Bibcode 1
nachdem 1
الشيخ 1
Nähe 1
plass 1
politics 1
Jessica 1
520 1
##mond 1
MCG 1
Tout 1
joint 1
борбору 1
мировой 1
##رو 1
বেয়াপা 1
많은 1
##oh 1
##ობის 1
oor 1
##берг 1
##board 1
lata 1
##nata 1
Basketball 1
jam 1
##्ट 1
rang 1
Fair 1
вновь 1
mg 1
اولین 1
모든 1
နှင့် 1
##ಕ್ 1
לה 1
حول 1
##اني 1
مايو 1
என்னும் 1
##éré 1
##tò 1
##чный 1
ligi 1
Literatur 1
verder 1
##യും 1
Serikat 1
hậu 1
короля 1
##ティ 1
chose 1
enorme 1
greater 1
##eh 1
reduced 1
Navarra 1
##غير 1
fleste 1
##לו 1
##iy 1
hoàng 1
capo 1
243 1
##uen 1
soldats 1
conquista 1
occidentale 1
comedy 1
occurred 1
##kers 1
sidlakang 1
##ارة 1
famoso 1
##fs 1
resources 1
వైద్యశాల 1
ensimmäinen 1
נגד 1
##lés 1
##gger 1
##rom 1
##нки 1
मण्डलया 1
głównie 1
Teams 1
##dina 1
Bp 1
এটি 1
lässt 1
január 1
gebaut 1
gründete 1
##cato 1
##fera 1
nuevos 1
##лено 1
##elor 1
##ços 1
##lav 1
български 1
немесе 1
Normandie 1
داشته 1
velmi 1
Hilfe 1
frontera 1
9967 1
##ਦੇ 1
##щие 1
##ders 1
ספר 1
causes 1
қарасты 1
Commander 1
participation 1
negative 1
مجموعة 1
storico 1
כלל 1
honek 1
##î 1
justice 1
علاقہ 1
nato 1
différentes 1
##āja 1
Canadá 1
bastante 1
Otte 1
##mata 1
##ತಿ 1
Around 1
##יט 1
possui 1
tutta 1
다시 1
గంటల 1
verloren 1
Liebe 1
##soort 1
Conrad 1
ساخته 1
##kų 1
##ઓ 1
Республикасының 1
drugih 1
Tree 1
##тэй 1
233 1
##antes 1
##들을 1
ఉన్నారు 1
Nei 1
Sơn 1
Cohen 1
vokal 1
tercera 1
lah 1
RAF 1
##нал 1
##шли 1
Nazi 1
deutlich 1
##μή 1
Aholi 1
estuvo 1
weniger 1
##ನೆ 1
##ации 1
való 1
##цов 1
Miranda 1
Schneider 1
325 1
variable 1
lai 1
Stadion 1
##rile 1
billion 1
##ď 1
cycle 1
voie 1
Hrvatska 1
245 1
Denmark 1
पुरस्कार 1
##lmente 1
##יית 1
valle 1
##пы 1
đời 1
##šte 1
још 1
##نگ 1
lever 1
amerikanischer 1
души 1
Kid 1
##eiro 1
Тоҷикистон 1
Literature 1
##ável 1
వనరుల 1
escuela 1
219 1
općine 1
rhywogaeth 1
чел 1
élections 1
Nie 1
claims 1
gain 1
ellen 1
1760 1
както 1
##nii 1
##jih 1
روستایی 1
kolme 1
función 1
yıl 1
trzy 1
பற்றிய 1
Najveći 1
Madame 1
##λία 1
##lerini 1
noir 1
öz 1
Tiger 1
realizó 1
##owane 1
njegov 1
background 1
Ridge 1
##ugh 1
nominated 1
##cent 1
##ھ 1
лютого 1
riu 1
##ús 1
##נק 1
##ё 1
Soccer 1
คน 1
composta 1
##скому 1
القدم 1
aufgenommen 1
##lane 1
olduğunu 1
naval 1
cal 1
Norton 1
##യാണ് 1
driver 1
Anglice 1
Kebangsaan 1
resta 1
##nú 1
##otta 1
aquests 1
metu 1
##문 1
توابع 1
##िन 1
ubicada 1
paid 1
##ئية 1
313 1
##קו 1
ym 1
taip 1
Leslie 1
présence 1
##lser 1
##hem 1
vera 1
##ਿਤ 1
Jung 1
motivo 1
distancia 1
Jako 1
##gado 1
Stories 1
##В 1
##minister 1
Hof 1
entanto 1
1763 1
Pearl 1
##ief 1
sezonu 1
##ři 1
patients 1
પર 1
##ói 1
##ība 1
##star 1
Helmut 1
چند 1
##чения 1
expected 1
draw 1
##key 1
programas 1
winter 1
Orlando 1
După 1
tanah 1
मण्डल 1
établissements 1
##zek 1
μπορεί 1
##yat 1
Android 1
##тай 1
regióne 1
##uja 1
Buffalo 1
œuvres 1
mph 1
yếu 1
teu 1
##شن 1
острова 1
volgens 1
Madagascar 1
##нага 1
Серед 1
Luca 1
Switzerland 1
##חת 1
což 1
letters 1
jeunes 1
Коди 1
עבור 1
##igh 1
ciò 1
##τας 1
##іне 1
stazione 1
Ziel 1
taught 1
חיים 1
bentuk 1
eredeti 1
##ahan 1
##alla 1
kilometrga 1
hinter 1
отримав 1
##taja 1
certaines 1
статус 1
##ิน 1
mangrupa 1
##ond 1
##ப்பட்ட 1
servicios 1
Kuala 1
chưa 1
formada 1
marque 1
Hampshire 1
Ca 1
##vno 1
розташований 1
##ランド 1
कई 1
##рта 1
acres 1
ven 1
##யாக 1
##isce 1
##čení 1
##ага 1
České 1
трёх 1
twenty 1
##onie 1
spring 1
##cate 1
bütün 1
##ాల 1
costruzione 1
humans 1
Stalin 1
Infantry 1
Native 1
рамках 1
##selt 1
Sr 1
##әр 1
applications 1
udalerria 1
більше 1
environment 1
audience 1
gisa 1
secondary 1
Cộng 1
pertencente 1
Bennett 1
##zone 1
Kosovo 1
Augusto 1
Server 1
medida 1
gällande 1
thần 1
##tul 1
##ტის 1
Josh 1
##τών 1
さらに 1
pasa 1
295 1
suffered 1
hiji 1
bring 1
dẫn 1
хан 1
##gre 1
instruments 1
simply 1
colonial 1
providing 1
vescovo 1
##yor 1
copies 1
donné 1
##indo 1
expanded 1
ಅವರ 1
##ће 1
ursprünglich 1
না 1
Loma 1
countyt 1
biểu 1
Defense 1
306 1
damage 1
##ంచారు 1
##umu 1
تولید 1
##tati 1
##ật 1
identified 1
##tog 1
251 1
##eres 1
Emmy 1
##eris 1
##ew 1
Filmen 1
няма 1
Zentrum 1
##ว่า 1
Verde 1
something 1
##ops 1
##шта 1
avut 1
lịch 1
##чної 1
empresas 1
powierzchni 1
##ന്നു 1
lá 1
##ким 1
movimiento 1
##হ 1
##kten 1
інші 1
##рда 1
##еля 1
Beyond 1
Match 1
##лах 1
##вич 1
Nassau 1
fly 1
док 1
тикшерелгән 1
Grecia 1
Geometridae 1
entreprise 1
Palmer 1
كم² 1
##שר 1
##った 1
רב 1
Mine 1
##wano 1
대한민국 1
##ij 1
Ghost 1
##ates 1
Eo 1
میشوند 1
##ੂ 1
והוא 1
##чные 1
##ød 1
Россия 1
##ír 1
setembre 1
002 1
Zero 1
##žio 1
według 1
##führer 1
Romeo 1
Jun 1
Теллина 1
Beliau 1
اؤلکهسینده 1
##ël 1
link 1
Lladin 1
graf 1
quarto 1
##naire 1
للسكان 1
##вка 1
друга 1
hefyd 1
##lauf 1
Glenn 1
մարզի 1
##cen 1
##іл 1
селе 1
Thai 1
ubos 1
Gloria 1
Darwin 1
locales 1
##에게 1
طريق 1
##шення 1
##rts 1
229 1
Kampung 1
друг 1
ap 1
##ydd 1
##ரை 1
ходе 1
##čkog 1
301 1
##ோ 1
##rman 1
PTT 1
fish 1
terres 1
prof 1
ejército 1
##phone 1
aún 1
restaurant 1
##ván 1
##ències 1
statue 1
##vara 1
##cció 1
##tés 1
Illustrated 1
##halten 1
##ео 1
करता 1
##фи 1
bermain 1
статистика 1
##pper 1
beta 1
primeiros 1
##iä 1
##dro 1
##ಕೆ 1
тэме 1
kladograma 1
##ും 1
254 1
từng 1
Edwin 1
Concert 1
twice 1
430 1
304 1
##git 1
unità 1
Basel 1
Anti 1
##nä 1
tipus 1
Imperio 1
Ela 1
##երում 1
marzu 1
##ורה 1
unico 1
ön 1
##owana 1
השנים 1
Namun 1
parallel 1
وذلك 1
finish 1
erwähnt 1
Bezeichnung 1
üç 1
receive 1
##cation 1
##út 1
Germain 1
Raum 1
habitatge 1
##انه 1
আইএসবিএন 1
دوران 1
Article 1
კი 1
##ště 1
diagrama 1
##ndosi 1
actrice 1
##ていた 1
##orn 1
març 1
victoria 1
televisiva 1
życia 1
##طة 1
ël 1
vive 1
##ái 1
##atus 1
##మైన 1
##аз 1
liệu 1
suit 1
entrar 1
stile 1
236 1
Vera 1
professeur 1
dute 1
##ары 1
##הם 1
nekazaritza 1
##щая 1
Hopkins 1
##દ 1
Giacomo 1
Hai 1
##جی 1
##rida 1
Dio 1
##jske 1
センター 1
Seoul 1
##ś 1
##bang 1
Galaxies 1
Josep 1
lorsque 1
##سي 1
violence 1
бөлігі 1
##리는 1
Bereits 1
##нее 1
##bung 1
يقع 1
##lere 1
Father 1
إن 1
2006년 1
ప్రకారం 1
Honor 1
dando 1
kraj 1
fransk 1
usado 1
Gérard 1
sjön 1
околу 1
अनुसार 1
Así 1
ponad 1
Почта 1
##tado 1
сол 1
больше 1
hop 1
architect 1
dafür 1
##և 1
Ibn 1
Szent 1
##ој 1
chương 1
##लाई 1
spolu 1
которое 1
хотя 1
Stefano 1
##tr 1
##nės 1
Bois 1
parroquia 1
Intel 1
Kai 1
##iens 1
##ake 1
између 1
int 1
Tibet 1
Solar 1
##ಲ 1
##ða 1
qədər 1
désormais 1
##ım 1
Seu 1
Claudio 1
##ρη 1
morir 1
Track 1
##нна 1
##ņa 1
covers 1
410 1
Companion 1
##tics 1
télévisée 1
ezt 1
##spieler 1
##nahme 1
precedente 1
##ంగా 1
koning 1
##zzo 1
##iam 1
##stel 1
propre 1
Banks 1
فبراير 1
IOC 1
század 1
##inas 1
##aw 1
##ാണ് 1
##ула 1
hija 1
imao 1
facto 1
からは 1
macht 1
coi 1
##ọ 1
raja 1
نوفمبر 1
##מנים 1
246 1
##dium 1
##dita 1
Training 1
હતી 1
##토 1
##aries 1
önemli 1
منطقه 1
canzone 1
obecnie 1
Ella 1
##ιά 1
##хьа 1
дуже 1
tục 1
usage 1
algumas 1
ғылыми 1
grans 1
многих 1
##zuje 1
##ńska 1
begins 1
Gil 1
suomalainen 1
каде 1
allows 1
Then 1
kerana 1
voit 1
zien 1
Origins 1
विभिन्न 1
Anno 1
composer 1
Bd 1
Quân 1
##cznie 1
##lidae 1
Lucy 1
##zki 1
బంజరు 1
traffic 1
attacks 1
##ók 1
přes 1
Uno 1
gehiago 1
khí 1
Rosario 1
Jews 1
akkor 1
titles 1
الخامسة 1
##lerde 1
##verein 1
Вікісховішчы 1
cabeza 1
двох 1
##ために 1
engineer 1
outre 1
poznatih 1
minimum 1
рр 1
##rden 1
hu 1
##dura 1
pintor 1
Fútbol 1
жінок 1
##lov 1
Room 1
قام 1
тут 1
része 1
додека 1
##ьний 1
construir 1
Belgium 1
Польщі 1
##ಂ 1
seluruh 1
AFC 1
wielu 1
Kacamatan 1
గణాంకాల 1
##ebb 1
membros 1
situated 1
##dí 1
isam 1
tillegg 1
Belanda 1
mehreren 1
villes 1
##inis 1
vader 1
Want 1
kabanay 1
##uca 1
ныне 1
حدود 1
Pascal 1
249 1
creation 1
kept 1
##iah 1
Eugène 1
egiteko 1
Hero 1
Nagy 1
cinéma 1
Authority 1
##つ 1
terrain 1
دولار 1
számára 1
moyenne 1
##שי 1
milioni 1
fazer 1
intitulé 1
Socorro 1
listopadu 1
현재 1
يوم 1
مساحت 1
commission 1
կմ 1
kỷ 1
Arabic 1
Malcolm 1
##ið 1
newly 1
bunda 1
matchs 1
Беларуси 1
UN 1
ceinture 1
Dawn 1
épisodes 1
الدين 1
##イン 1
śmierci 1
Garcia 1
заедно 1
книга 1
Palermo 1
Luc 1
մոտ 1
deep 1
wala 1
Gymnasium 1
außerdem 1
connue 1
##ôi 1
роботи 1
Saudi 1
меттиган 1
Produktion 1
zaś 1
Belle 1
Tang 1
არის 1
bude 1
Artist 1
қараша 1
densidade 1
Chem 1
reports 1
majoritatea 1
veröffentlichte 1
Alba 1
##تي 1
släkte 1
belangrijkste 1
##ég 1
Lalat 1
yli 1
Beograd 1
##angan 1
Nathan 1
Globe 1
poté 1
bandet 1
##ನೆಯ 1
ilin 1
combate 1
##isesti 1
zaradi 1
Félix 1
elkaar 1
resulted 1
наиболее 1
##ece 1
existing 1
Stan 1
dêr 1
portion 1
siirtyi 1
zeer 1
nuit 1
хыпарĕпе 1
clube 1
##erten 1
まれ 1
organizations 1
theme 1
##ئے 1
IRAS 1
эти 1
ομάδα 1
parelles 1
Michele 1
##lada 1
towns 1
Ал 1
този 1
lugares 1
##att 1
dựng 1
Frédéric 1
Yeni 1
organ 1
camera 1
##stic 1
división 1
##ế 1
Upon 1
ла 1
になる 1
##kaan 1
##ję 1
##ਿਕ 1
অনুসারে 1
Tá 1
чыгарылышы 1
πόλη 1
bán 1
##tida 1
базасындағы 1
театр 1
ứng 1
esercito 1
##jai 1
questions 1
orientale 1
שלה 1
##ático 1
історії 1
Abril 1
##щение 1
языка 1
##jt 1
##ത്തെ 1
##acji 1
##ترین 1
igjen 1
wall 1
##ivos 1
Díaz 1
##lagen 1
svojim 1
редактор 1
##များ 1
Kecamatan 1
##ီ 1
былі 1
##anan 1
##য়া 1
##бар 1
Hardy 1
anteriores 1
##ლები 1
euros 1
آغاز 1
##τι 1
##uin 1
##liste 1
##нг 1
##eck 1
##דת 1
Nina 1
##чена 1
##وار 1
Julien 1
éditions 1
272 1
خط 1
Comté 1
departemente 1
petits 1
##mək 1
##čen 1
unes 1
##цију 1
##려 1
metais 1
proto 1
gelegen 1
##vole 1
Make 1
Orient 1
станции 1
Advanced 1
resulting 1
Far 1
hie 1
##логии 1
Zjednoczonych 1
Patricia 1
میدهد 1
##alan 1
Bischof 1
ratio 1
reçoit 1
legge 1
जाते 1
dvije 1
##ьная 1
Guitar 1
Fund 1
rada 1
##بار 1
denna 1
små 1
piece 1
buried 1
##idades 1
##ások 1
##жна 1
authority 1
периода 1
arribar 1
##graphie 1
##lek 1
conte 1
pozycji 1
liegen 1
##ಲು 1
successivamente 1
tedy 1
Yuta 1
##업 1
nhập 1
például 1
suivant 1
যা 1
##مية 1
307 1
кога 1
ней 1
Universitat 1
sign 1
فإن 1
##নের 1
absolvierte 1
Alfredo 1
description 1
develop 1
niin 1
thương 1
भाग 1
школе 1
लावन 1
##zés 1
আসে 1
##ਡ 1
bigarren 1
Vega 1
##dek 1
##tai 1
élu 1
akhir 1
##sida 1
orchestra 1
logements 1
لئی 1
légales 1
Beautiful 1
passar 1
született 1
Teile 1
kung 1
##ங்களில் 1
tj 1
cinc 1
##лены 1
1768 1
آخر 1
Eugene 1
##์ 1
yá 1
הן 1
droite 1
laikā 1
pasar 1
ခုနှစ် 1
deste 1
lehet 1
##лем 1
Making 1
brano 1
genyen 1
##် 1
##ટ 1
Франция 1
بھارت 1
Nuevo 1
applied 1
##czenia 1
considerada 1
##рок 1
coup 1
hijos 1
regering 1
vệ 1
ఒకటి 1
fratello 1
##ály 1
003 1
làng 1
##toria 1
ty 1
Chuck 1
invasion 1
Private 1
אלה 1
құрамы 1
Española 1
службу 1
##лд 1
##ası 1
effective 1
##lä 1
नेपाली 1
visible 1
brukt 1
Luther 1
رئيس 1
měl 1
neki 1
titular 1
Бахархойн 1
đóng 1
सकता 1
##ில் 1
Richter 1
DOI 1
алу 1
##ои 1
окончил 1
seats 1
##وش 1
mayu 1
##цыя 1
##جد 1
edição 1
##ься 1
##the 1
learning 1
soles 1
Мамлекеттик 1
Martha 1
boy 1
##ăng 1
Pa 1
fia 1
##טי 1
##tge 1
activité 1
Duitsland 1
setiembre 1
##rja 1
работу 1
arba 1
##يب 1
Nice 1
campeonato 1
painting 1
##عات 1
のみ 1
quelli 1
первого 1
yapılan 1
reality 1
lieutenant 1
brigade 1
chiếm 1
Федератсияи 1
Počet 1
numa 1
##дің 1
##லும் 1
юханшыв 1
##ં 1
doctor 1
erster 1
వ్యవసాయానికి 1
Avrupa 1
pues 1
రోడ్లు 1
##ilen 1
##mmer 1
iTunes 1
##него 1
Lista 1
##iker 1
##ավոր 1
Volgens 1
siis 1
úgy 1
gebouwd 1
##νη 1
Bosne 1
IT 1
своё 1
successivo 1
guest 1
##jk 1
situata 1
kroz 1
gener 1
granted 1
войск 1
##ப்படுகிறது 1
பட்டியல் 1
utilizado 1
Oblast 1
eftir 1
##nė 1
प्राप्त 1
دار 1
بلندی 1
##lerinde 1
##keun 1
Beste 1
info 1
kuwa 1
##žení 1
marked 1
בעיר 1
##алі 1
xineru 1
бұл 1
##osta 1
としては 1
##kta 1
connected 1
##ости 1
##صر 1
257 1
avevano 1
lama 1
##ച്ച് 1
##cijos 1
rouge 1
そして 1
##tern 1
poznat 1
##ئي 1
##μάτων 1
ekki 1
##חים 1
##jia 1
xunu 1
acest 1
##ffe 1
Ortsteil 1
##ässä 1
sementara 1
##mb 1
##вать 1
ডিসেম্বর 1
##halt 1
quyết 1
יחד 1
Александра 1
##nam 1
mata 1
vue 1
aldı 1
##들 1
tells 1
##ью 1
unidades 1
surrounding 1
639 1
בהם 1
אדם 1
различных 1
##бі 1
торган 1
hermano 1
Situs 1
druhé 1
tada 1
Erfolg 1
necessary 1
Honduras 1
Edge 1
MW 1
##uel 1
gewesen 1
GAD 1
רבות 1
полка 1
##zation 1
водного 1
usar 1
##ëve 1
دارند 1
##ბის 1
Range 1
inspired 1
##년에 1
##mic 1
##ま 1
##דר 1
##gge 1
fuerza 1
Michelle 1
##уна 1
##سم 1
のため 1
olid 1
##ులు 1
arc 1
Leiden 1
वर्णन 1
##ады 1
advanced 1
tây 1
gemaakt 1
Lorraine 1
رقبہ 1
##hur 1
дивизии 1
Asociación 1
receptor 1
##മായ 1
néven 1
bà 1
Baseball 1
groupes 1
erau 1
Jeremy 1
ولی 1
общества 1
##nds 1
téh 1
studia 1
ernannt 1
provinsi 1
ноември 1
##dica 1
dnia 1
##owski 1
اساسيندا 1
##тка 1
dá 1
271 1
tagja 1
deltok 1
agost 1
##лів 1
##gat 1
courses 1
еден 1
другим 1
presencia 1
radar 1
Comme 1
центром 1
bỏ 1
safety 1
##सी 1
anual 1
##pon 1
luar 1
Berger 1
trad 1
inyo 1
##aat 1
##akan 1
principali 1
dorp 1
##IN 1
webgunean 1
##itus 1
Academic 1
##qi 1
##ficación 1
##arten 1
након 1
##ёв 1
súas 1
##SA 1
##ический 1
Tổng 1
повіту 1
Nicole 1
##mde 1
えて 1
indeling 1
мәғлүмәте 1
##ất 1
Lion 1
Dana 1
ולא 1
##aten 1
Léon 1
ranking 1
##уда 1
##्व 1
tried 1
seguir 1
Que 1
##ома 1
##down 1
években 1
Sala 1
què 1
sq 1
море 1
Magdalena 1
303 1
bala 1
##stwo 1
##gni 1
##ês 1
Start 1
237 1
வளர்ச்சி 1
##лік 1
##шу 1
Chine 1
màu 1
Campionato 1
valt 1
също 1
##ย์ 1
##ệ 1
частности 1
completely 1
##ഡ് 1
##ização 1
##ète 1
mandat 1
##minen 1
ولد 1
##illo 1
##лений 1
Кече 1
##nische 1
кар 1
##tory 1
##verse 1
##chy 1
timpul 1
votos 1
Continental 1
Terre 1
personaje 1
##က 1
članak 1
lau 1
Museu 1
nå 1
tao 1
MP 1
ray 1
Jesse 1
περιοχή 1
##ടെ 1
Montgomery 1
fully 1
foto 1
Деҳа 1
Vista 1
Omar 1
Tijdens 1
dempués 1
disc 1
##anu 1
ہوئے 1
zespół 1
Adelaide 1
##юць 1
jenis 1
পৌরসভা 1
##нения 1
آباد 1
cando 1
დიდი 1
даними 1
vehicles 1
yard 1
sette 1
Maritime 1
Familien 1
block 1
333 1
rio 1
galaksija 1
multimedia 1
datu 1
containing 1
##eux 1
##czył 1
##ають 1
südlich 1
##ёл 1
FBI 1
kanton 1
Dijupuk 1
علمی 1
nào 1
##ята 1
મુખ્ય 1
quá 1
##čko 1
sides 1
жизнь 1
plata 1
sør 1
##ייה 1
##ির 1
disabuik 1
karya 1
seja 1
##ბს 1
маҳаллаҳои 1
кино 1
##rane 1
Marion 1
MA 1
##تون 1
wins 1
rejoint 1
UCI 1
##tą 1
karakter 1
аҳолинишини 1
##gno 1
melakukan 1
ehk 1
##øy 1
sillä 1
saman 1
teaching 1
таким 1
Liberty 1
Aunque 1
##iter 1
460 1
242 1
antiguo 1
клубу 1
##bing 1
dima 1
##lny 1
##았다 1
حسن 1
karşı 1
unknown 1
ప్రధాన 1
mpilalao 1
##grafía 1
један 1
##лий 1
##щий 1
##յալ 1
منتشر 1
Chúng 1
داده 1
antigua 1
##ತೆ 1
решение 1
##ינה 1
##nten 1
شروع 1
##ender 1
Tam 1
construcció 1
gilay 1
komon 1
talagsaon 1
itandi 1
##hme 1
Artikel 1
##рен 1
1779 1
Truppen 1
fondo 1
أبريل 1
decir 1
došlo 1
dewasa 1
मार्च 1
Emilio 1
huit 1
personer 1
rộng 1
obtained 1
scoring 1
confirmed 1
##gren 1
Munich 1
##ünden 1
לפי 1
axe 1
начин 1
##nci 1
##우 1
nouveaux 1
Petra 1
ինչպես 1
acción 1
Verbindung 1
история 1
core 1
generalmente 1
EC 1
Angela 1
##તા 1
שהיה 1
thắng 1
##ította 1
généralement 1
براساس 1
##ことで 1
##त्र 1
##ారు 1
Spielen 1
Royaume 1
здесь 1
המדינה 1
rekord 1
Tennis 1
ایمیش 1
##mans 1
Viena 1
##னி 1
ilmiah 1
wenig 1
због 1
blevet 1
##тів 1
პირველი 1
##िल 1
##ìa 1
##λα 1
Ел 1
болуп 1
مواليد 1
1740 1
##ით 1
baixa 1
populaire 1
288 1
bất 1
دنیز 1
vehicle 1
terreno 1
##lius 1
##כן 1
##lava 1
avuto 1
vivint 1
talent 1
ОКАТО 1
methods 1
poble 1
seks 1
گرفت 1
Albrecht 1
##טון 1
президент 1
ore 1
##tamente 1
blei 1
edited 1
##egen 1
##दी 1
Ihre 1
nominato 1
Communications 1
##ям 1
finalement 1
sterk 1
Dunia 1
geworden 1
основном 1
Dios 1
olmuştur 1
##лок 1
alábbi 1
occasione 1
Иванович 1
##кие 1
maig 1
injury 1
##ware 1
claim 1
армия 1
##cono 1
Bien 1
кеше 1
Steel 1
boek 1
rend 1
##wała 1
Архив 1
EMI 1
mesi 1
referencia 1
##ares 1
नेपाःया 1
АО 1
younger 1
feito 1
showed 1
##тик 1
xây 1
gemeenten 1
काल 1
##vez 1
1753 1
বাংলাদেশ 1
Selain 1
imaju 1
##ание 1
Welsh 1
##ава 1
##нат 1
##dle 1
xunetu 1
Günther 1
##nca 1
##meter 1
bord 1
Ainsi 1
באמצעות 1
285 1
timur 1
것이 1
##בו 1
##čnih 1
байсан 1
stora 1
gjort 1
unas 1
##jah 1
##stre 1
##érer 1
noto 1
voidaan 1
##цією 1
Britse 1
euren 1
##eks 1
welches 1
Jamie 1
baza 1
##형 1
Policy 1
biaso 1
ibilgailuen 1
figli 1
lès 1
Hay 1
אחרים 1
##ï 1
Iᵉʳ 1
##preis 1
##larına 1
Search 1
starring 1
države 1
##ight 1
troupes 1
dunha 1
Hozzáférés 1
laweh 1
disponible 1
Universiteit 1
##cm 1
CDU 1
##ಿನ 1
##enn 1
medzi 1
##öld 1
Becker 1
fighting 1
##ტ 1
войска 1
نیں 1
ತನ್ನ 1
kapalo 1
visit 1
##lini 1
##σουν 1
Branch 1
karusakan 1
mine 1
אחר 1
translation 1
Emilia 1
şebekesi 1
##mission 1
##чено 1
##chia 1
sviluppo 1
Evil 1
##্স 1
##жу 1
Universe 1
تمام 1
##ვი 1
##av 1
Dieu 1
неговата 1
##קר 1
více 1
работа 1
Still 1
##ρος 1
##ದೆ 1
economy 1
kurang 1
##eon 1
tytuł 1
versie 1
జనాభా 1
Bratislava 1
Yorkshire 1
Guillermo 1
##quet 1
대한민국의 1
Sieg 1
Us 1
とした 1
##ést 1
kalas 1
కోసం 1
importancia 1
##ptera 1
SD 1
244 1
Testament 1
waardoor 1
##awa 1
##חר 1
##itos 1
##ക്കുന്നു 1
principals 1
الحرب 1
aquel 1
jednym 1
limite 1
Chan 1
classement 1
ભારત 1
labor 1
الإنجليزية 1
##ので 1
##ীর 1
мають 1
मराठी 1
tanduak 1
##ירה 1
étude 1
slechts 1
Cannes 1
Konrad 1
manyebabkan 1
ditabang 1
manggerek 1
panggerek 1
##δα 1
Bo 1
##tand 1
##られた 1
Brooks 1
oldest 1
chairman 1
részt 1
##անի 1
giống 1
мае 1
Tale 1
Flying 1
committee 1
##mą 1
daily 1
mùa 1
moest 1
istifadə 1
उन्होंने 1
Battalion 1
CV 1
pair 1
##تے 1
##րական 1
Polskiego 1
influencia 1
pracy 1
գտնվում 1
##ід 1
lle 1
##yl 1
Stade 1
##린 1
erabiltzen 1
Engels 1
household 1
struttura 1
##зан 1
العمل 1
contrato 1
tratta 1
Wayback 1
##բ 1
autores 1
Στις 1
##olt 1
Двина 1
18th 1
tillsammans 1
метров 1
##ië 1
храм 1
імені 1
suggested 1
художник 1
Arbeiten 1
Ranking 1
عليها 1
Grove 1
Moselle 1
##unta 1
рок 1
##оя 1
bildet 1
kerajaan 1
میان 1
kojima 1
kat 1
ќе 1
##vati 1
किसी 1
historie 1
##ध 1
siehe 1
##bild 1
होने 1
perquè 1
berbagai 1
Ministerio 1
Tallinna 1
bhliain 1
commander 1
##һе 1
distintos 1
командир 1
##ське 1
Они 1
##ували 1
jų 1
##шения 1
Lage 1
instrumental 1
exchange 1
##mış 1
Europese 1
##ění 1
Alpha 1
##iona 1
административно 1
Censo 1
dates 1
schloss 1
ॠतु 1
##чная 1
Forbes 1
315 1
bor 1
eski 1
officials 1
alapján 1
dous 1
Norsk 1
##ூர் 1
##И 1
forest 1
##того 1
WWW 1
scuola 1
##まで 1
##ച്ചു 1
domu 1
pinyin 1
publicada 1
champions 1
Ex 1
Hubert 1
##מין 1
##rich 1
trono 1
život 1
##odu 1
Wahl 1
حکومت 1
##лана 1
##cted 1
ಆದರೆ 1
Roosevelt 1
Osmanlı 1
několik 1
ब्रिटिसतेसं 1
ਜੋ 1
wanita 1
Bernardo 1
hoàn 1
городского 1
شخص 1
##rlo 1
##ána 1
##انية 1
ללא 1
Lamerikän 1
##isto 1
facility 1
Too 1
subsp 1
manusia 1
soos 1
empezó 1
##анд 1
Interview 1
##anja 1
wówczas 1
Tallinn 1
##šel 1
unu 1
##ùng 1
##agi 1
hom 1
##ভাবে 1
participó 1
##기도 1
בנוסף 1
##cre 1
tower 1
ин 1
##zina 1
##дары 1
juliol 1
må 1
##mate 1
natus 1
kai 1
probablement 1
viện 1
##מון 1
Horse 1
##enda 1
pelajar 1
Escola 1
##రం 1
өлкәсе 1
nagrada 1
arrive 1
##لى 1
##ioù 1
losing 1
Lower 1
##чным 1
grunn 1
##rita 1
võib 1
calle 1
としての 1
##iat 1
లేదా 1
variant 1
##rzy 1
##ضة 1
trop 1
Herzog 1
muitas 1
girls 1
হল 1
##σα 1
familii 1
keeles 1
documentary 1
kaimas 1
##col 1
##ख 1
##િત 1
##れ 1
Choice 1
جاتا 1
Gobierno 1
шамасы 1
Kommunen 1
##け 1
##వు 1
##σης 1
##리를 1
Til 1
בשל 1
hver 1
##tsi 1
seo 1
елда 1
retrouve 1
Arabia 1
Shadow 1
वाले 1
##low 1
vrlo 1
Входит 1
Chase 1
##ened 1
beat 1
##lni 1
resultados 1
benannt 1
Pologne 1
quae 1
think 1
##нс 1
##put 1
##vých 1
виде 1
Deutsch 1
##лися 1
##сць 1
ahli 1
##ணி 1
kahenera 1
##ல 1
حوالي 1
##تان 1
texto 1
месте 1
##льна 1
الأمريكية 1
##ויות 1
chance 1
##ulation 1
Stanisław 1
critique 1
restos 1
Italiane 1
Ellis 1
Betty 1
kapott 1
estes 1
العائلات 1
matter 1
багато 1
étape 1
אחרי 1
rank 1
ochobre 1
Condado 1
Melayu 1
Statistica 1
Vienne 1
historian 1
stadium 1
tie 1
programming 1
##iae 1
##hia 1
dis 1
##ോ 1
hits 1
provinciji 1
Espesye 1
hands 1
##ема 1
Родился 1
तहसील 1
ასევე 1
##icas 1
WTA 1
zostało 1
elementi 1
rozpoczął 1
##rán 1
избран 1
lit 1
##ातील 1
##ندا 1
Agustus 1
১৮ 1
Auvergne 1
slike 1
comté 1
dù 1
неактивними 1
vede 1
Rich 1
reason 1
उनके 1
ਜਾਂਦਾ 1
arten 1
dollars 1
campaña 1
einmal 1
DL 1
орталығы 1
ગુજરાત 1
Flores 1
pubblico 1
bahan 1
Giro 1
Ruiz 1
Duncan 1
##glia 1
##ście 1
Axel 1
Nachfolger 1
##ようになった 1
آقوست 1
fundamental 1
visita 1
argentino 1
##iran 1
cổ 1
برخی 1
##టు 1
##ninger 1
Петербург 1
##kami 1
postao 1
elecciones 1
##dum 1
##യിലെ 1
F1 1
Amazon 1
GT 1
fiume 1
amigo 1
egli 1
ένας 1
concernant 1
mental 1
247 1
базе 1
celu 1
chosen 1
års 1
порт 1
##공 1
routes 1
##sio 1
često 1
diente 1
incident 1
participación 1
Railroad 1
valodik 1
Eagle 1
##жных 1
##iment 1
dakong 1
ხოლო 1
жынысы 1
закон 1
theatre 1
##jak 1
##burgo 1
bygget 1
##イト 1
фильма 1
mất 1
دنیا 1
Nama 1
##gor 1
Trek 1
##rija 1
umum 1
içinde 1
lyrics 1
Anche 1
Februari 1
##тво 1
చెందిన 1
Lödanadensit 1
##sts 1
Республикасы 1
всі 1
നിന്ന് 1
Deportivo 1
##unu 1
ještě 1
काम 1
##cc 1
především 1
stranici 1
##cía 1
##orum 1
voru 1
##rla 1
زادهٔ 1
Під 1
##bbe 1
yol 1
երկու 1
##чну 1
Forever 1
Jupiter 1
##azi 1
Newcastle 1
מה 1
награда 1
kanthi 1
##ваат 1
##னை 1
chân 1
מטר 1
##რო 1
entwickelte 1
##kach 1
masing 1
1660 1
##もの 1
Hernandez 1
Jej 1
Από 1
sở 1
skrevet 1
Mk 1
Beim 1
406 1
ensimmäisen 1
verheiratet 1
sistemi 1
trấn 1
follow 1
##ête 1
##ph 1
##تن 1
kinadul 1
1648 1
атлантикан 1
Lambert 1
Suba 1
##ído 1
VL 1
गाँव 1
##ತ್ತು 1
Vor 1
##こと 1
peace 1
DS 1
inglês 1
ritorno 1
fuerzas 1
##िंग 1
queda 1
Европа 1
##graphy 1
##lán 1
composé 1
mosaik 1
##dil 1
##іння 1
incluindo 1
ove 1
Helsingin 1
usando 1
##nais 1
formado 1
entra 1
తన 1
എസ് 1
##cych 1
##sso 1
succeeded 1
случае 1
##kis 1
структура 1
hadden 1
lietuvių 1
Angels 1
##ப்பட்டது 1
##ької 1
vuodesta 1
agostu 1
##чной 1
Palma 1
attrice 1
Even 1
Jürgen 1
##iding 1
##력 1
некоторых 1
различни 1
Ин 1
##anje 1
##တ် 1
ama 1
arms 1
Kids 1
##ള്ള 1
gihulagway 1
Snow 1
советский 1
##jna 1
captain 1
blues 1
##ლო 1
laws 1
##მი 1
Jos 1
##rge 1
potom 1
##sée 1
Professional 1
##eja 1
##ումը 1
##isse 1
okrese 1
рос 1
Perang 1
nombrado 1
xe 1
Wilayah 1
##graph 1
Guido 1
өз 1
display 1
serait 1
Horn 1
centra 1
strany 1
##tim 1
##ील 1
Porter 1
Croix 1
##오 1
Gattung 1
Dieses 1
Fast 1
##cens 1
##ío 1
##ovo 1
위한 1
espècie 1
##्क 1
##itate 1
##ását 1
чемпионате 1
##von 1
Στην 1
Noctuidae 1
diferencia 1
##lü 1
Ausbildung 1
bande 1
##rent 1
ನಂತರ 1
batzuk 1
##stellen 1
հիմնական 1
ihres 1
realtà 1
bonus 1
Évolution 1
##cci 1
##itä 1
medicine 1
##ิ 1
Rang 1
peste 1
economia 1
##だ 1
##сэн 1
ತಮ್ಮ 1
кӀеда 1
##ístico 1
##ith 1
amateur 1
இல் 1
##ικές 1
##ריה 1
##ền 1
##င် 1
mix 1
chống 1
Animal 1
Gulf 1
##ogi 1
##وق 1
finnes 1
livro 1
הסרט 1
headquarters 1
عدة 1
כיום 1
Ja 1
Regel 1
dele 1
բնակչության 1
##ент 1
nördlich 1
##ങ്ങളിൽ 1
Pokémon 1
Dominique 1
hạng 1
жатады 1
ذات 1
##asta 1
##día 1
viri 1
ufficiale 1
Einwohnern 1
Basis 1
##colo 1
nghệ 1
entitled 1
együtt 1
##kı 1
##यों 1
οποίος 1
actividades 1
générale 1
concello 1
entrée 1
functions 1
holds 1
latino 1
##ρια 1
décide 1
szócikk 1
##された 1
##нә 1
livres 1
Cristina 1
повеќе 1
Fiat 1
király 1
##yes 1
Min 1
##đe 1
##stik 1
achieved 1
Länge 1
cái 1
##ícia 1
lúc 1
Stil 1
Борис 1
##рь 1
derrota 1
zonder 1
##rti 1
##თი 1
##сын 1
##صل 1
authorities 1
фран 1
chết 1
##hé 1
pravilima 1
##rades 1
##ίο 1
Circle 1
##ックス 1
completo 1
Titan 1
anschließend 1
Jin 1
comunque 1
Besitz 1
390 1
onu 1
##ску 1
медаль 1
##mbang 1
##ần 1
##лады 1
quarter 1
##sége 1
されており 1
enda 1
##ração 1
aa 1
Nu 1
##oan 1
דבר 1
classifica 1
سر 1
heures 1
Ottoman 1
Thanh 1
sekarang 1
##âu 1
الرسمي 1
odc 1
inhabitants 1
##vei 1
erzielte 1
##וה 1
индексі 1
Obama 1
##дал 1
Podczas 1
кхолламан 1
allowing 1
Haut 1
1950s 1
##vni 1
اسم 1
Broadcasting 1
határos 1
politiques 1
своим 1
##šao 1
espace 1
зокрема 1
##ծ 1
کیلومیٹر 1
kamp 1
Lille 1
Vereinigten 1
Ada 1
zero 1
Weltmeisterschaft 1
##ssi 1
začal 1
##èr 1
##ապես 1
Regina 1
depi 1
fundador 1
ولا 1
##ўся 1
Berlín 1
adaptation 1
##σεων 1
באותה 1
Begriff 1
мангалан 1
##inden 1
passes 1
siete 1
##sne 1
##프 1
##рак 1
##נן 1
מנת 1
größten 1
kiedy 1
քանի 1
disputa 1
##cznym 1
இணையக் 1
αιώνα 1
Sudan 1
Pfalz 1
Market 1
##রা 1
Vid 1
##cə 1
Filippo 1
273 1
##eran 1
fonte 1
cm³ 1
Circuit 1
деятельности 1
##fier 1
Göteborg 1
phụ 1
eden 1
ആണ് 1
империи 1
Amérique 1
bliver 1
##sley 1
avientu 1
команди 1
##ási 1
gruppen 1
Автор 1
unica 1
Staat 1
relatively 1
##جه 1
asp 1
sum 1
tzw 1
Without 1
##こ 1
vô 1
όμως 1
##сии 1
Israeli 1
draft 1
LINEAR 1
##стю 1
Russie 1
##аний 1
karon 1
##іх 1
られた 1
fields 1
Nationale 1
Damit 1
##ceu 1
Crystal 1
airport 1
escala 1
##ँ 1
##einander 1
reino 1
още 1
सं 1
경우 1
asal 1
люди 1
הקבוצה 1
противника 1
Hochschule 1
##dern 1
##مي 1
bumi 1
Simone 1
266 1
títulos 1
fuerte 1
války 1
ann 1
країни 1
##шин 1
##keta 1
الملك 1
kauden 1
není 1
##نة 1
##aca 1
Як 1
joven 1
##vna 1
Sør 1
sucesso 1
##ína 1
soorten 1
subito 1
Section 1
concerts 1
städsegrön 1
##нный 1
solution 1
##glio 1
spot 1
créée 1
##τε 1
கல்விக்கழகம் 1
spielt 1
První 1
stil 1
##ände 1
##رس 1
résultats 1
մէջ 1
হয়েছে 1
Movement 1
করতে 1
utiliza 1
문서 1
##bius 1
##νή 1
montre 1
семейство 1
##nces 1
Flash 1
anv 1
qualquer 1
همراه 1
Zudem 1
##чко 1
##quer 1
kwenye 1
oude 1
isto 1
Gründung 1
koko 1
##లలో 1
لهیستان 1
Christina 1
##rino 1
##tól 1
ezért 1
لعب 1
május 1
Chang 1
##रे 1
##ест 1
segon 1
точки 1
323 1
Chrysomelidae 1
coll 1
identity 1
humana 1
koristi 1
##cata 1
Wellington 1
##aco 1
Luís 1
bleef 1
Aviation 1
##quia 1
землі 1
target 1
##öl 1
улица 1
Distrito 1
##cera 1
beyond 1
Jugoslavije 1
##թ 1
Все 1
gênero 1
##ьна 1
школи 1
nii 1
Eye 1
##지만 1
maire 1
##ex 1
##ığı 1
einde 1
268 1
##ину 1
##°C 1
sering 1
ricerca 1
##нер 1
absence 1
ভাষায় 1
dauden 1
##sak 1
tempererat 1
nalista 1
என 1
##რა 1
Pagka 1
قال 1
dritten 1
siak 1
personnage 1
Але 1
सबसे 1
Several 1
steel 1
۲۰۱۰ 1
##евич 1
kteří 1
Braunschweig 1
263 1
##вета 1
##owie 1
imperial 1
302 1
needs 1
müssen 1
Hung 1
sinn 1
частина 1
Walk 1
تمت 1
resultat 1
façon 1
auprès 1
etti 1
centru 1
التابعة 1
Pavel 1
##euse 1
nº 1
##מל 1
fishes 1
Storbritannien 1
occupied 1
Chairman 1
##rot 1
Castillo 1
##fahren 1
Mill 1
scena 1
Jake 1
neste 1
folgende 1
allí 1
##ladi 1
##леге 1
##eter 1
sydd 1
Novo 1
##eksi 1
vídeo 1
જે 1
derecho 1
Leeds 1
২০০১ 1
9965 1
Frankrijk 1
Adventures 1
##bah 1
kehrte 1
Chalcidoidea 1
Najvyšší 1
Jensen 1
Hercegovina 1
inicial 1
##રી 1
način 1
perteneciente 1
Beat 1
حزب 1
tank 1
6000 1
##няя 1
##స్తుంది 1
trees 1
هـ 1
##ову 1
toate 1
francúzska 1
##сов 1
זמן 1
Ghana 1
##ėje 1
jeszcze 1
write 1
##pak 1
Scénario 1
Revue 1
Bogotá 1
Bonaparte 1
##ավ 1
Berry 1
Świata 1
rapidement 1
Draft 1
szeptember 1
등의 1
другой 1
Üniversitesi 1
##ficado 1
patag 1
##ią 1
ён 1
##ਈ 1
aC 1
selben 1
realizada 1
##ək 1
роли 1
rise 1
тығыздығы 1
##komst 1
##nig 1
sonora 1
contributions 1
dirigido 1
vuotta 1
astéroïdes 1
eventos 1
singel 1
##cket 1
1771 1
času 1
إيران 1
##াল 1
##zung 1
fauna 1
##rine 1
jedno 1
március 1
zom 1
ドイツ 1
pirenen 1
Maya 1
групата 1
Return 1
derechos 1
##nija 1
Guard 1
##äinen 1
elemento 1
terjadi 1
espacio 1
##کس 1
کم 1
जाती 1
286 1
Dreams 1
##ót 1
하였다 1
##ined 1
sogar 1
الدولة 1
##ites 1
jild 1
pt 1
morning 1
arma 1
február 1
fevrye 1
kanggo 1
Kiben 1
plats 1
brothers 1
الثانية 1
yake 1
##ส 1
##rza 1
políticos 1
მდებარეობს 1
domain 1
Matoari 1
niż 1
Tribunal 1
gente 1
##ư 1
এক 1
jäi 1
Manager 1
st 1
bands 1
cirka 1
utifrån 1
quant 1
Lëscht 1
##چه 1
गढवाली 1
##ием 1
svého 1
##arse 1
##зии 1
көп 1
voyage 1
Stiftung 1
governor 1
##туу 1
рада 1
になった 1
##লে 1
miejscowości 1
Svenska 1
Igor 1
Low 1
seguintes 1
282 1
اليمنية 1
miała 1
Economics 1
##オ 1
Azerbaijan 1
شركة 1
するが 1
Hälfte 1
футболбози 1
issu 1
museo 1
umfasst 1
мĕш 1
ערך 1
ehemalige 1
##ներով 1
teoría 1
položený 1
Consejo 1
1766 1
##гер 1
Laguna 1
Италия 1
ГИ 1
##tine 1
Ungarn 1
costat 1
découvert 1
fond 1
государственного 1
missions 1
supérieur 1
Fishes 1
hohen 1
perform 1
##aci 1
1769 1
##يو 1
Crazy 1
##ично 1
frequently 1
##50 1
##ბა 1
##sca 1
Cemetery 1
tiền 1
276 1
Hann 1
Intelligence 1
Igreja 1
जुगु 1
nær 1
われ 1
len 1
थियो 1
Երևան 1
terkenal 1
##फ 1
##нă 1
comptait 1
conde 1
нескольких 1
Travel 1
##кт 1
bought 1
Birinchi 1
krigen 1
##ufen 1
##uran 1
يبلغ 1
edilir 1
moth 1
Zdroje 1
Etazini 1
payares 1
Menteri 1
jis 1
##xt 1
277 1
Kategorie 1
landskapet 1
Brand 1
આવેલું 1
među 1
Olga 1
різних 1
##spor 1
Philippine 1
свого 1
##ID 1
Dieter 1
Antoni 1
йина 1
clan 1
començar 1
kích 1
årene 1
започва 1
##ಡಿ 1
Clube 1
Italijani 1
België 1
##gir 1
чоловіків 1
Block 1
##데 1
během 1
sixth 1
supply 1
##گیری 1
општина 1
במשך 1
قانون 1
##sor 1
dilakukan 1
##بات 1
##рин 1
Bronze 1
##pol 1
274 1
dunay 1
##pare 1
##bě 1
occupation 1
cung 1
Albania 1
chamada 1
באנגלית 1
1765 1
lệ 1
##ringen 1
jelent 1
سپتامبر 1
Sogn 1
игра 1
Ki 1
czyli 1
একজন 1
respect 1
Deutscher 1
титул 1
Seventh 1
որտեղ 1
Papua 1
liberal 1
kinahabogang 1
stod 1
Medelhavsklimat 1
saga 1
##olla 1
многу 1
Mass 1
células 1
dur 1
##वा 1
שנות 1
warrt 1
##کر 1
asemenea 1
totalmente 1
Göttingen 1
късно 1
##pada 1
Things 1
دولت 1
##ڑ 1
##рів 1
மேலும் 1
encontrar 1
selección 1
heiratete 1
##kah 1
##zko 1
ellas 1
##тина 1
##노 1
Phi 1
##скім 1
##nato 1
##აში 1
մեկ 1
कथलं 1
év 1
gebracht 1
wiele 1
##քում 1
mitjà 1
пайда 1
##جم 1
Toyota 1
técnica 1
##عت 1
regista 1
##enes 1
Westfalen 1
Cada 1
Paradise 1
##łe 1
##ラー 1
Pe 1
بی 1
conegut 1
holding 1
portant 1
Woods 1
АН 1
##enburg 1
##лып 1
settled 1
кхин 1
##museum 1
Staff 1
Mayer 1
##dni 1
pierwszej 1
befand 1
ity 1
##ਾਰ 1
Salzburg 1
##istic 1
गए 1
Aleksandr 1
##ống 1
##ციის 1
అని 1
meeste 1
якому 1
Ti 1
##odi 1
július 1
werken 1
Дар 1
Folgen 1
##ంచి 1
brief 1
mert 1
кількість 1
opgericht 1
##vale 1
bé 1
##aciones 1
ends 1
##äre 1
Münster 1
controlled 1
Herschel 1
russo 1
französische 1
shared 1
vat 1
1767 1
najnižší 1
Actualmente 1
oficialmente 1
histórico 1
##ляет 1
harus 1
pieces 1
Leitung 1
##ял 1
りの 1
##tza 1
институты 1
celles 1
spiller 1
mente 1
Rossi 1
##eret 1
ژوئن 1
##ується 1
قرية 1
ending 1
במסגרת 1
LA 1
Alemanya 1
##ules 1
llevó 1
##έα 1
261 1
Tournament 1
kilka 1
##ivity 1
AU 1
Wikipedije 1
Hendrik 1
Tell 1
##dice 1
##kol 1
assez 1
tua 1
جهان 1
amigos 1
tamaño 1
##roy 1
##ブ 1
##lim 1
##tava 1
ગામ 1
##ング 1
мужчин 1
##vista 1
##эд 1
julkaistiin 1
ће 1
Richards 1
##agem 1
дело 1
సినిమా 1
lelaki 1
user 1
aired 1
1650 1
ایہہ 1
jota 1
begge 1
vedere 1
чура 1
bijvoorbeeld 1
Ucraina 1
electoral 1
##صد 1
##dla 1
regionie 1
##onne 1
##ணம் 1
succes 1
creating 1
Herrschaft 1
تنها 1
Frantsa 1
##ωσε 1
284 1
яп 1
основе 1
совет 1
##čný 1
annonce 1
gira 1
##tui 1
حاصل 1
наоѓа 1
Neal 1
##ńskich 1
##داری 1
Réalisation 1
лейтенант 1
constant 1
quam 1
##њи 1
##ziale 1
boreala 1
Parma 1
##moto 1
##ատ 1
forza 1
##्त 1
cor 1
##יס 1
extensive 1
##mpe 1
##ody 1
Sidney 1
περίοδο 1
dt 1
شکل 1
üzerine 1
mạnh 1
##ẻ 1
départ 1
posta 1
festa 1
garde 1
போன்ற 1
##τικών 1
filma 1
mở 1
simples 1
numerosi 1
Kun 1
klein 1
Населенные 1
tộc 1
Richardson 1
##жил 1
noche 1
##graf 1
piccolo 1
maestro 1
##aires 1
Stop 1
раёне 1
##bte 1
Orde 1
Tân 1
allenatore 1
##mán 1
Posteriormente 1
Eerste 1
fordi 1
Pendant 1
われている 1
Inside 1
##되고 1
dni 1
formazione 1
parë 1
##ρες 1
científica 1
grupu 1
281 1
##щее 1
Geography 1
प्रमुख 1
tels 1
ইলতাই 1
mark 1
ایجاد 1
##π 1
Ihr 1
Үзәк 1
258 1
launch 1
جان 1
##jnë 1
amerykański 1
470 1
aínda 1
chemin 1
Enterprise 1
convertir 1
skog 1
Technical 1
##ъл 1
##dé 1
ہن 1
##bir 1
Monica 1
Salt 1
##ív 1
תחת 1
хьостан 1
Andrzej 1
desembre 1
##utta 1
Mills 1
Montenegro 1
buku 1
acts 1
информации 1
##گر 1
##၀ 1
##jában 1
##vní 1
کردن 1
Depois 1
##ুর 1
Ida 1
Ing 1
semble 1
##fn 1
##גים 1
##lal 1
287 1
##արի 1
##sburg 1
अपनी 1
dessus 1
##bridge 1
февруари 1
personne 1
ayuda 1
portal 1
##эт 1
Leiter 1
##oku 1
أنها 1
##vere 1
Freiburg 1
testa 1
sepak 1
##мент 1
Status 1
jezika 1
については 1
##тно 1
ahora 1
pomiędzy 1
կարող 1
omna 1
##ปี 1
Trois 1
##ици 1
capable 1
##ბი 1
форма 1
##jne 1
исто 1
statistique 1
##νική 1
полностью 1
puta 1
названием 1
Bradley 1
agriculture 1
stadion 1
##iau 1
donar 1
abitàncc 1
মুনি 1
پیدا 1
comprend 1
hoc 1
teritorija 1
##osti 1
prevent 1
recebeu 1
##torio 1
Jeffrey 1
##ल्या 1
mah 1
Guicciardini 1
ebenso 1
staden 1
##lant 1
pal 1
object 1
internationalen 1
нім 1
kalla 1
kojoj 1
##يع 1
##ρά 1
##vana 1
Italijanski 1
майор 1
Từ 1
Fighter 1
Ph 1
##bildung 1
мир 1
testo 1
##fia 1
Milton 1
правило 1
idade 1
úr 1
##hard 1
medalla 1
rokoch 1
током 1
dopuniti 1
Denver 1
##elen 1
##fin 1
##صور 1
fitxa 1
fått 1
besitzt 1
##물 1
гуьйре 1
##jó 1
zobrazuje 1
##bina 1
derived 1
##ვს 1
##czenie 1
##ạch 1
##ੋਂ 1
Archives 1
osoby 1
Prior 1
ponownie 1
##poli 1
בעל 1
Orléans 1
cử 1
Brad 1
Nedovršeni 1
##цького 1
régiment 1
Також 1
transporte 1
entwickelt 1
##hm 1
کشف 1
Dopunite 1
önce 1
minder 1
araka 1
obtuvo 1
1762 1
##tki 1
##ירות 1
##خت 1
##േ 1
##ûn 1
##લી 1
Comedy 1
जब 1
სხვა 1
britiske 1
ירושלים 1
اسلام 1
##كية 1
enemy 1
palabra 1
koniec 1
ای 1
모두 1
##odd 1
proche 1
278 1
hộ 1
stond 1
##nc 1
setting 1
##سون 1
Llên 1
Weitere 1
##صة 1
##لو 1
##ñas 1
Nokia 1
##aus 1
Pato 1
birds 1
работ 1
foguèt 1
##ienne 1
gay 1
##нска 1
338 1
можуть 1
dermed 1
алсама 1
##ској 1
##する 1
##ạn 1
dólares 1
##war 1
##נט 1
Sveriges 1
murder 1
##tisch 1
libros 1
Bryant 1
##اول 1
Olímpicos 1
##মান 1
##비 1
штат 1
##ические 1
dellos 1
politischen 1
##וץ 1
##טו 1
##ján 1
ಆಫ್ 1
##tata 1
marketing 1
saluran 1
rose 1
importanti 1
297 1
##dies 1
مقاطعة 1
##ânia 1
گئی 1
पहले 1
tyre 1
##ког 1
292 1
Churchill 1
arrested 1
سیارک 1
powerful 1
област 1
##жал 1
##ায় 1
Bus 1
##ént 1
économique 1
1764 1
febreru 1
Acta 1
Homo 1
##łu 1
[...]
